{"type": "bpe", "base": [" ", "!", "\"", "#", "%", "&", "'", "(", ")", "*", "+", ",", "-", ".", "/", "0", "1", "2", "3", "4", "5", "6", "7", "8", "9", ":", ";", "<", "=", ">", "?", "@", "A", "B", "C", "D", "E", "F", "G", "H", "I", "J", "K", "L", "M", "N", "O", "P", "Q", "R", "S", "T", "U", "V", "W", "X", "Y", "[", "\\", "]", "_", "`", "a", "b", "c", "d", "e", "f", "g", "h", "i", "j", "k", "l", "m", "n", "o", "p", "q", "r", "s", "t", "u", "v", "w", "x", "y", "z", "{", "|", "}", "~", "±", "·", "×", "÷", "α", "β", "ε", "λ", "π", "–", "—", "‖", "“", "”", "…", "↑", "→", "↓", "↔", "∈", "−", "≈", "≠", "≤", "≥", "①", "②", "③", "④", "⑤", "⑥", "⑦", "─", "│", "└", "├", "►", "▼", "✅", "✓", "✔", "✗", "、", "。", "《", "》", "「", "」", "『", "』", "【", "】", "一", "七", "万", "三", "上", "下", "不", "与", "专", "且", "世", "业", "丛", "丝", "丢", "两", "严", "个", "中", "丰", "串", "临", "为", "主", "举", "久", "么", "义", "之", "乌", "乎", "乐", "九", "也", "习", "书", "乱", "了", "予", "争", "事", "二", "于", "云", "互", "五", "些", "亡", "交", "亦", "产", "享", "京", "亲", "人", "亿", "什", "仅", "今", "仍", "从", "仓", "他", "付", "代", "令", "以", "仪", "们", "仰", "件", "价", "任", "份", "仿", "企", "众", "优", "伙", "会", "传", "估", "伴", "伸", "似", "但", "位", "低", "住", "体", "何", "余", "作", "你", "佳", "使", "例", "供", "依", "侧", "促", "保", "信", "修", "倍", "候", "借", "值", "倾", "假", "偏", "做", "停", "健", "储", "像", "允", "元", "充", "兆", "先", "光", "克", "免", "兜", "入", "全", "八", "公", "六", "共", "关", "兴", "兵", "其", "具", "典", "养", "兼", "内", "册", "再", "冒", "冗", "写", "冲", "决", "况", "冷", "净", "准", "减", "几", "凭", "出", "击", "函", "刀", "分", "切", "刊", "划", "列", "则", "创", "初", "删", "判", "利", "别", "到", "制", "刷", "刺", "刻", "前", "剔", "剪", "副", "力", "办", "功", "加", "务", "劣", "动", "助", "励", "劳", "势", "勤", "包", "化", "北", "匹", "区", "医", "十", "千", "升", "半", "协", "卓", "单", "博", "占", "卡", "印", "危", "即", "却", "卷", "厂", "历", "压", "厚", "原", "去", "参", "又", "叉", "及", "友", "双", "反", "发", "取", "受", "变", "叠", "口", "句", "另", "只", "召", "可", "台", "史", "号", "司", "各", "合", "同", "名", "后", "吐", "向", "君", "吞", "否", "吧", "含", "听", "启", "吸", "吾", "呈", "告", "员", "周", "味", "命", "和", "品", "哈", "响", "哪", "唯", "商", "喂", "善", "喧", "喻", "嗅", "器", "噪", "嚣", "四", "回", "因", "团", "园", "围", "固", "国", "图", "土", "在", "地", "场", "址", "均", "坍", "坏", "坑", "块", "坚", "垂", "型", "垒", "域", "培", "基", "堆", "塌", "塑", "塔", "塞", "填", "境", "墙", "增", "墨", "壁", "壤", "士", "壮", "声", "壳", "处", "备", "复", "外", "多", "够", "大", "天", "太", "央", "失", "头", "夹", "奇", "奋", "奏", "契", "奖", "套", "好", "如", "妙", "妥", "始", "姿", "威", "子", "孕", "字", "存", "孙", "季", "学", "孵", "它", "守", "安", "完", "宏", "官", "定", "实", "审", "客", "室", "家", "容", "宽", "宿", "密", "富", "察", "寸", "对", "寻", "导", "射", "将", "尊", "小", "少", "尖", "尚", "尝", "尤", "就", "尺", "尽", "尾", "局", "层", "展", "属", "岗", "岸", "崩", "嵌", "巢", "工", "巨", "差", "己", "已", "市", "布", "师", "希", "带", "帧", "帮", "常", "幅", "幕", "干", "平", "年", "并", "广", "序", "库", "应", "底", "度", "座", "康", "延", "建", "开", "异", "弃", "式", "引", "张", "弦", "弱", "弹", "强", "归", "当", "录", "形", "影", "彻", "彼", "往", "征", "径", "待", "很", "律", "得", "循", "微", "德", "徼", "心", "必", "忆", "忍", "志", "忘", "忠", "快", "念", "态", "怎", "怕", "思", "急", "性", "总", "恒", "恢", "息", "恰", "恶", "悉", "情", "惯", "惰", "想", "愈", "意", "感", "愠", "愿", "慢", "慧", "懂", "戏", "成", "我", "或", "战", "截", "户", "房", "所", "手", "才", "扎", "扑", "打", "托", "执", "扩", "扫", "扮", "批", "找", "承", "技", "把", "抓", "投", "抖", "折", "抢", "护", "报", "披", "抬", "抱", "抵", "抽", "担", "拆", "拉", "拒", "拓", "拔", "招", "拟", "拥", "拦", "择", "括", "拷", "拼", "拿", "持", "指", "按", "挑", "挖", "挥", "损", "换", "据", "捷", "掉", "掌", "排", "掘", "探", "接", "控", "推", "掩", "措", "描", "提", "插", "握", "揭", "搀", "搜", "搞", "搭", "摆", "摘", "摩", "撑", "撬", "播", "撰", "擅", "操", "擎", "擦", "攀", "支", "收", "改", "攻", "放", "政", "故", "效", "敏", "教", "敛", "敢", "散", "敬", "数", "整", "文", "斗", "料", "斜", "斥", "断", "新", "方", "施", "旅", "旋", "无", "既", "日", "旧", "早", "时", "明", "易", "星", "映", "是", "显", "晋", "景", "晰", "智", "暂", "暖", "暴", "曰", "曲", "更", "曾", "替", "最", "月", "有", "朋", "服", "望", "期", "木", "未", "末", "本", "术", "机", "杂", "权", "材", "束", "条", "来", "松", "板", "极", "构", "析", "果", "架", "某", "染", "柜", "查", "栅", "标", "栈", "栏", "校", "样", "核", "根", "格", "框", "案", "桌", "档", "桥", "桶", "梁", "梦", "梯", "械", "检", "棒", "棘", "椀", "楚", "概", "榜", "榨", "槛", "模", "横", "欠", "次", "欢", "欲", "款", "歌", "止", "正", "此", "步", "死", "殆", "残", "段", "母", "每", "比", "毫", "气", "氛", "水", "永", "求", "汇", "池", "污", "沉", "沙", "沟", "没", "治", "沿", "泄", "法", "泛", "波", "注", "洀", "洁", "洗", "洞", "洪", "活", "派", "流", "浇", "测", "浓", "海", "浸", "消", "涉", "涌", "涨", "液", "涵", "淀", "淆", "深", "混", "清", "渗", "温", "渲", "渴", "游", "湃", "湖", "湿", "溃", "源", "溢", "溯", "滑", "滚", "满", "漂", "漏", "演", "潜", "澎", "灌", "火", "灭", "灯", "灰", "灵", "灾", "炸", "点", "炼", "烈", "烟", "热", "焉", "焦", "然", "照", "熄", "熟", "燃", "爀", "爆", "爬", "爱", "片", "版", "牌", "牢", "物", "牵", "特", "犯", "状", "独", "猛", "献", "玄", "率", "玩", "环", "现", "班", "球", "理", "琐", "琢", "瓦", "瓶", "生", "用", "由", "申", "电", "画", "畅", "界", "畏", "留", "略", "疆", "疏", "症", "痕", "痛", "登", "白", "百", "的", "益", "监", "盒", "盖", "盘", "目", "盯", "盲", "直", "相", "盾", "省", "看", "真", "眼", "着", "督", "瞄", "瞻", "矣", "知", "矩", "短", "石", "矿", "码", "研", "破", "础", "硕", "硬", "确", "碎", "碑", "磁", "磨", "示", "礼", "社", "祉", "神", "票", "禁", "福", "离", "秀", "种", "科", "秒", "秦", "秩", "积", "称", "移", "稀", "程", "税", "稠", "稳", "究", "空", "穿", "突", "窗", "立", "站", "竞", "章", "端", "笔", "符", "第", "笼", "等", "筑", "答", "策", "筛", "筹", "签", "简", "算", "管", "箱", "籍", "类", "粘", "粹", "精", "糊", "系", "素", "索", "紧", "累", "繁", "纠", "红", "约", "级", "纪", "纯", "纳", "纵", "纸", "纹", "纽", "线", "练", "组", "细", "织", "终", "经", "结", "绕", "给", "络", "绝", "统", "继", "绩", "绪", "续", "维", "综", "绿", "缀", "缓", "编", "缝", "缩", "缺", "网", "罔", "罕", "置", "署", "美", "群", "翻", "老", "考", "者", "而", "耕", "耗", "耦", "聊", "职", "联", "聘", "聚", "肯", "育", "背", "胜", "能", "脆", "脑", "脚", "脱", "腻", "自", "至", "致", "舍", "航", "般", "良", "色", "艺", "节", "芒", "芯", "花", "若", "英", "范", "荆", "荐", "荣", "获", "营", "落", "著", "蒸", "蓝", "薪", "虑", "虚", "虫", "蚁", "蚂", "融", "血", "行", "衡", "补", "表", "衰", "衷", "被", "裁", "裂", "装", "裕", "裹", "要", "覆", "见", "观", "规", "视", "览", "觉", "角", "解", "触", "言", "计", "订", "认", "让", "训", "议", "记", "讲", "许", "论", "设", "访", "证", "评", "识", "诉", "诊", "词", "译", "试", "诗", "诚", "话", "诡", "询", "该", "详", "语", "误", "说", "诵", "请", "诺", "读", "课", "调", "谈", "谋", "谓", "谢", "谨", "象", "貌", "贝", "负", "贡", "财", "责", "败", "账", "货", "质", "贪", "购", "贯", "贴", "费", "资", "赋", "赖", "赛", "走", "起", "超", "越", "趋", "趟", "趣", "足", "跃", "跌", "跑", "距", "跟", "跨", "路", "跳", "践", "踏", "踩", "踪", "蹊", "身", "轨", "转", "轮", "软", "轻", "载", "较", "辄", "辅", "辑", "输", "辞", "辟", "辨", "边", "达", "迁", "过", "迈", "迎", "运", "近", "返", "还", "这", "进", "远", "连", "迟", "迭", "述", "迹", "追", "退", "送", "适", "逃", "选", "透", "逐", "递", "逗", "通", "速", "造", "逸", "逻", "逼", "遇", "道", "遗", "遵", "避", "邃", "那", "邻", "部", "都", "配", "酬", "醒", "采", "释", "里", "重", "野", "量", "金", "鉴", "针", "钟", "钮", "钳", "钻", "铁", "银", "铸", "铺", "链", "销", "锁", "锋", "锐", "错", "锚", "键", "镜", "长", "门", "闭", "问", "闲", "间", "阈", "阔", "队", "阱", "防", "阵", "阶", "附", "际", "陆", "降", "限", "院", "除", "险", "陪", "陷", "随", "隐", "隔", "障", "难", "雅", "集", "雏", "雕", "零", "需", "露", "静", "非", "靠", "面", "革", "音", "页", "顶", "项", "顺", "须", "预", "领", "颈", "频", "题", "额", "颠", "风", "飙", "馈", "馏", "首", "驭", "驱", "驳", "驻", "驾", "验", "骤", "骨", "骼", "高", "魂", "鲁", "鲜", "黑", "默", "鼓", "齐", "！", "（", "）", "，", "：", "；", "＝", "？", "～", "🐜"], "merges": [[",", " "], ["n", "t"], ["s", "t"], ["o", "r"], ["|", " "], ["a", "r"], ["i", "n"], ["=", " "], ["r", "e"], [" ", " "], [" ", "| "], ["o", "n"], [" ", "= "], ["g", "e"], ["s", "e"], [":", " "], ["e", "st"], ["*", "*"], ["-", "-"], ["d", "e"], ["s", "s"], ["a", "t"], ["e", "n"], ["\"", ", "], ["─", "─"], ["a", "c"], ["t", "o"], ["ge", "nt"], ["数", "据"], ["m", "e"], ["t", "i"], ["#", " "], ["0", "."], ["-", " "], ["a", "nt"], ["\"", ": "], ["e", "r"], ["l", "o"], ["(", "\""], ["A", "gent"], ["c", "h"], ["\"", "\""], ["模", "型"], ["+", " "], ["o", "l"], ["训", "练"], ["f", " "], ["\"", ")"], ["a", "l"], ["Agent", " "], ["m", "p"], ["r", "o"], ["t", " "], ["a", "d"], ["(", ")"], ["t", "e"], ["n", "e"], [" ", "+ "], ["p", "y"], ["/", " "], ["a", "n"], ["`", "`"], ["工", "具"], ["se", "l"], [" ", "/ "], ["sel", "f"], ["N", "est"], ["t", "s"], ["t", "r"], ["  ", "  "], ["→", " "], ["ar", "g"], ["1", "."], ["任", "务"], ["团", "队"], ["ant", "n"], ["antn", "est"], ["ar", "ne"], ["arne", "ss"], ["2", "."], ["o", "de"], ["s", "."], ["c", "k"], ["\", ", "\""], ["l", "i"], ["u", "r"], [" ", "|"], ["to", "ol"], ["能", "力"], ["产", "品"], ["l", "e"], [" ", "→ "], ["3", "."], ["ur", "n"], ["i", "f "], ["in", " "], ["j", "s"], ["t", "urn"], ["工", "程"], ["p", "o"], ["#", "# "], ["self", "."], ["or", " "], ["H", "arness"], ["A", "I"], ["0", "0"], ["L", "L"], ["Nest", " "], ["评", "测"], ["──", "──"], ["l", "l"], ["js", "on"], ["\": ", "\""], ["\"\"", "\""], ["u", "l"], ["系", "统"], ["LL", "M"], ["r", "i"], ["re", "turn"], ["to", "k"], ["s", " "], ["职", "位"], ["e", "x"], [".", "py"], ["{", "\""], ["return", " "], ["u", "t"], [" ", "-"], ["f", "\""], ["方", "向"], ["Harness", " "], ["c", "o"], ["ti", "on"], ["ant", "Nest "], ["设", "计"], ["t", "h"], ["s", "p"], ["2", " "], [")", ","], ["m", "a"], ["m", " "], ["v", "al"], ["n", "_"], ["or", "ch"], ["f", "i"], ["de", "f "], ["tr", "a"], ["）", "，"], ["动", "作"], ["4", "."], ["f", "or "], ["``", "`"], ["a", "p"], ["s", "h"], ["t", "orch"], ["i", "d"], ["--", "-"], ["in", "g"], ["m", "ode"], ["mode", "l"], ["at", "h"], ["a", "me"], ["研", "究"], ["antnest", "_"], ["i", "mp"], ["imp", "or"], ["impor", "t "], ["d", "i"], ["i", "z"], ["0", " "], ["w", "or"], ["ac", "tion"], ["p", "a"], [" ", "in "], ["\\", "n"], ["开", "发"], ["c", "or"], [" | ", "0."], ["on", "e"], ["\"", "]"], ["AI", " "], ["）", "。"], ["e", "p"], ["p", "ar"], ["经", "验"], ["5", " "], ["3", " "], [">", " "], ["wor", "k"], ["ac", "e"], ["[", "\""], ["n", "ame"], ["g", "r"], ["\"", "}"], ["torch", "."], [")", ")"], ["我", "们"], ["sp", "ace"], ["p", "ro"], ["---", "|"], ["m", "d"], ["l", "en"], ["p", "e"], ["4", " "], ["—", "—"], ["f", "in"], ["work", "space"], ["ad", "_"], ["/", "workspace"], ["re", "w"], ["`", " "], ["_", "_"], ["N", "one"], ["文", "件"], ["真", "实"], ["e", "nt"], ["i", "st"], ["工程", "师"], ["技", "术"], ["a", "s"], ["ar", "ti"], ["arti", "f"], ["artif", "ac"], ["artifac", "ts"], ["学", "习"], ["th", "on"], ["s", " = "], ["工", "作"], ["S", "F"], ["**", "："], ["s", "f"], [")", ":"], ["d", "("], ["t", "."], [", ", "\""], ["/workspace", "/"], ["负", "责"], ["d", "_"], ["x", "t"], ["=", "\""], ["质", "量"], ["优", "化"], ["ul", "ti"], ["与", " "], ["进", "化"], ["p", "u"], ["方", "案"], ["SF", "T"], ["a", "se"], ["LLM", " "], ["ll", "m"], ["st", "r"], ["c", "t"], ["li", "st"], ["5", "."], ["_", "s"], ["\"", ","], ["交", "付"], ["gr", "po"], ["len", "("], ["语", "料"], ["or", "y"], [")", " "], ["。", "\", "], ["深", "度"], ["用", "户"], ["re", "p"], ["ma", "x"], ["核", "心"], ["的", " "], ["d", " "], ["1", " "], ["算", "法"], ["预", "训练"], ["sf", "t"], ["pa", "ss"], ["arg", "s."], ["in", "e"], ["o", "p"], ["d", "ing"], ["i", "nt"], ["e", "val"], ["岗", "位"], ["要", "求"], ["使", "用"], ["（", "Agent "], ["st", "ep"], ["u", "me"], ["问", "题"], ["轨", "迹"], ["---|", "---|"], [" ", "Agent "], ["h", "e"], ["i", "t"], ["artifacts", "/"], ["te", "xt"], ["    ", "    "], ["A", "G"], ["v", "e"], ["报", "告"], ["lo", "ss"], ["lo", "g"], ["架", "构"], ["性", "能"], ["网", "络"], ["l", "a"], ["6", " "], ["沙", "箱"], ["执", "行"], ["s", "()"], ["────", "────"], ["ge", "t"], ["co", "ding"], ["o", "ut"], [" -", "> "], ["智", "能"], ["理", "解"], ["完", "成"], ["f", "ro"], ["n", "o"], ["参", "数"], ["P", "U"], ["p", "en"], ["fro", "m "], ["【", "岗位"], ["领", "域"], ["P", "O"], ["-", "8"], ["持", "续"], ["具", "备"], [" ", "**"], ["py", "thon"], [" ", "0."], ["/workspace/", "antnest"], ["通", "过"], ["tok", "en"], ["AG", "I"], ["fi", "le"], ["测", "试"], ["e", "m"], ["_", "c"], ["A", "R"], ["ut", "f"], ["utf", "-8"], ["p", "ath"], ["3", "2 "], ["cor", "pu"], ["lo", "ck"], ["m", "ulti"], ["b", "est"], ["服", "务"], ["自", "动"], ["熟", "悉"], [" ", "C"], ["s", ", "], ["pro", "mp"], ["ul", "t"], ["fin", "i"], ["ro", "u"], ["antnest_", "llm"], ["v", "o"], ["b", "lock"], ["li", "ent"], ["as", "k"], ["  ", " "], ["规", "模"], [".", "md"], ["di", "r"], ["i", "l"], ["SFT", " "], ["t", "ask"], ["f", "a"], ["s", "("], ["{\"", "p"], ["研究", "员"], ["相", "关"], ["奖", "励"], ["2", "5"], ["采", "样"], ["-", "1"], ["w", "ri"], ["wri", "te"], [" ", "M"], ["管", "理"], ["al", "l"], ["iz", "er"], [".", "json"], ["r", "u"], ["iz", "e"], ["基", "础"], [" ", "R"], [" ", "1"], ["Q", "A"], ["(", "f\""], ["迭", "代"], ["a", "gent"], [" ", "{"], ["ne", "w"], ["/workspace/antnest", "/"], ["大", "模型"], ["结", "构"], ["l", "ine"], [" ", "等"], ["b", "ase"], ["一", "个"], ["对", "比"], ["G", "R"], ["fini", "sh"], [" ", "`"], ["职", "责"], ["经验", "。"], ["信", "息"], ["模", "态"], ["硬", "件"], ["（", "M"], ["）", "："], ["闭", "环"], ["词", "表"], ["c", "ode"], ["多", "步"], ["no", "t "], ["ume", "nt"], ["\"}", "),"], ["多", "模态"], ["运", "行"], ["D", "M"], ["a", "b"], ["o", "k"], ["## ", "M"], ["t", "est"], ["mp", "le"], ["]", ", "], [" ", "import "], ["s", ")"], ["ap", "."], ["建", "设"], [" ", "P"], ["ck", "p"], ["write", "_"], ["multi", "_"], ["at", "e"], ["tool", "\", \""], ["lo", "ad_"], ["P", "ath"], ["s", "u"], ["{\"p", "\": \""], ["要求", "】"], ["指", "标"], ["规", "划"], [" ", "v"], ["y", "pe"], ["门", "禁"], ["ol", "ve"], ["GR", "PO"], ["蚁", "巢"], ["交付", "物"], ["b", "u"], [")", " -> "], ["职责", "】"], ["分", "析"], ["搜", "索"], ["tra", "in"], ["运", "维"], ["re", "ad_"], ["t", "ype"], ["计", "算"], ["场", "景"], ["实", "现"], ["独", "立"], ["一", "致"], ["对", "话"], ["ch", "e"], ["i", "c"], [" ", "antNest "], ["vo", "c"], ["voc", "ab"], ["tra", "j"], ["from ", "."], ["c", "f"], ["de", "fa"], ["使", "命"], ["探", "索"], ["类", "型"], ["策", "略"], ["调", "度"], ["A", "nt"], ["结", "果"], ["g", "rep"], ["i", "ts"], ["l", "p"], [": ", "str"], ["ap", "pen"], ["appen", "d("], ["=", "= "], ["b", "d"], ["p", "ri"], ["pri", "nt"], ["落", "地"], ["，", "能"], ["大", "规模"], [" ", "AI "], ["ch", "at"], ["环", "境"], ["me", "m"], ["bu", "il"], ["r", "an"], ["a", "_"], ["co", "nt"], ["──", " "], ["\"", ":"], ["(", "1"], ["存", "储"], ["M", " "], ["s", "c"], ["锚", "定"], ["2", "4"], ["E", "A"], ["cor", "e"], ["s", "["], ["json", "."], ["AR", "T"], ["(\"", "tool\", \""], ["id", "x"], ["f\"", "{"], ["ap.", "ad"], ["ap.ad", "d_"], ["ap.add_", "arg"], ["ap.add_arg", "ument"], ["ap.add_argument", "(\""], ["ap.add_argument(\"", "--"], ["协", "作"], ["项", "目"], ["L", " "], ["推", "理"], ["体", "系"], ["框", "架"], ["，", "对"], ["集", "群"], ["对", "齐"], ["s", "_"], [" | ", "**"], ["max", "_"], [".", "st"], ["type", "="], ["(", "model"], ["描", "述"], ["深", "入"], ["分", "布"], ["研", "发"], ["检", "索"], ["定", "义"], ["a", "m"], ["a", "mple"], ["sh", "e"], ["she", "ll"], ["(", "self"], [" ", "for "], [".", "get"], ["text", "("], ["en", "coding"], ["encoding", "=\""], ["encoding=\"", "utf-8"], ["defa", "ult"], ["构", "建"], ["业", "务"], ["开", "源"], ["代", "码"], ["名", "称"], ["优", "先"], ["自", "己"], ["格", "式"], ["经", "理"], ["上", "下"], ["中", "心"], ["评测", "集"], ["_s", "ize"], ["encoding=\"utf-8", "\")"], ["/workspace/antnest/", "artifacts/"], ["职位", "描述"], ["平", "台"], ["解", "决"], [" ", "Harness "], ["e", "v"], ["ev", "olve"], ["负责", "人"], ["token", "izer"], ["- ", "**"], ["v", "er"], ["ma", "in"], ["cf", "g"], ["参", "与"], ["回", "归"], ["产品", "经理"], ["、", "M"], ["E", " "], ["che", "ck"], ["2", "8"], ["h", "arness"], ["00", "0"], ["pass", "@"], ["s", "\": "], ["'", "]"], ["验", "证"], ["安", "全"], ["定", "位"], ["上下", "文"], ["r", "a"], ["调", "用"], ["A", "S"], ["路", "径"], ["数据", "中心"], ["v", "i"], ["- ", "负责人"], ["- 负责人", "："], ["_", "p"], ["a", "ge"], [" = ", "torch."], ["print", "(f\""], ["\": ", "0."], ["加", "分"], ["处", "理"], ["专", "业"], ["默", "认"], ["write_", "file"], ["t", "_"], ["log", "its"], ["re", "fi"], ["refi", "x"], ["团队", "使命"], ["。", "我们"], ["边", "界"], ["维", "护"], ["以", "上"], ["职位", "名称"], ["段", "落"], ["关", "键"], ["L", "o"], ["过", "程"], ["目", "标"], ["check", "po"], ["checkpo", "int"], ["G", "P"], ["空", "间"], ["字", "符"], ["ct", "x"], ["目", "录"], [" ", "--"], [" = ", "["], [")", ", "], ["[", ":"], ["ti", "me"], ["团队使命", "】"], ["职位", "信息"], ["职", "能"], ["职能", "类型"], ["默认", "段落"], ["默认段落", "字"], ["默认段落字", "体"], ["统", "计"], ["自动", "化"], ["6", "."], ["体", "验"], ["ri", "p"], ["mem", "ory"], ["采", "购"], ["at", "ch"], ["--", "--"], ["e", "l"], ["C", "rew"], ["[", "0"], ["(self", ", "], [".", "par"], ["promp", "t"], ["ART", " / "], ["n_", "em"], ["he", "ad"], ["me", "ss"], ["mess", "age"], ["【", "团队使命】"], ["提", "升"], ["全", "职"], ["】", "："], ["，", "并"], ["c", "e"], ["设", "施"], ["an", "d"], ["d", "u"], ["每", "一"], ["Lo", "op"], ["D", "S"], ["s.", "json"], ["m", "in"], ["B", "P"], ["O", "N"], ["冲", "刺"], ["corpu", "s_"], [")", "}"], ["}", "\")"], ["block", "_size"], ["cfg", "[\""], ["。\", ", "{\"p\": \""], ["共", "同"], ["优", "秀"], ["需", "求"], ["知", "识"], ["，", "不"], ["AGI", " "], ["7", "."], ["1", "9"], ["GP", "T"], [" ", "2"], ["n", "n"], ["C", "lient"], ["vi", "e"], ["vie", "w"], ["新", "增"], ["it", "er"], ["EA", "DM"], ["+", "= "], ["保", "障"], ["、", "可"], ["【岗位", "要求】"], ["能力", "。"], ["内", "容"], ["e", "c"], ["w", "i"], ["智能", "体"], ["antnest_llm", "/"], ["l", "r"], ["antnest_", "harness"], ["l", "y"], ["list", "_"], ["list_", "dir"], ["```", "action"], ["）", " |"], ["_c", "on"], ["pa", "i"], ["pai", "r"], ["se", " "], ["o", "ver"], ["over", "all"], ["python", " -"], ["python -", "m "], ["di", "ct"], [" ", "== "], ["}", "\\n"], ["re", "s"], ["(model", ", "], ["ART / ", "f\"{"], ["n_em", "bd"], ["稳", "定"], ["，", "有"], ["编", "程"], ["下", "一"], ["1", "5"], ["y", "thon"], ["基础", "设施"], ["覆", "盖"], ["s", "or"], ["建", "立"], ["G", "PU"], ["什", "么"], ["文", "本"], ["3", "00"], ["nn", "."], ["1", "2"], ["b", "atch"], ["O", "O"], ["6", "7"], ["）", "；"], ["）", "→ "], ["#", "## "], ["回", "流"], ["QA", " "], ["0", ", "], ["h", "ist"], ["if ", "not "], [")", "."], ["T", "ru"], ["Tru", "e"], ["驱", "动"], ["分布", "式"], ["的", "数据"], ["复", "杂"], ["沟", "通"], [" ", "LLM "], ["【", "工作"], ["评", "估"], ["算", "力"], ["D", " "], ["1", "8"], ["T", "in"], ["Tin", "y"], ["Tiny", "GPT"], ["r", "ol"], ["g", "ist"], ["rou", "n"], ["）", " | "], [".py", "` "], ["对齐", "税"], ["6", "-"], ["par", "ts"], [" ", "or "], ["par", "se"], ["an", "s"], ["tok", ", "], ["max_", "new"], ["p", "_"], ["提", "供"], ["清", "洗"], ["包", "括"], ["流", "程"], ["范", "式"], ["R", "e"], ["o", "f"], ["产", "出"], ["修", "复"], ["t", "er"], ["建", "议"], ["ch", "ar"], [" | **", "0."], ["pro", "b"], ["an", "ch"], ["0", ")"], ["al", "se"], ["buil", "d_"], ["st", "at"], ["lo", "ad"], [".", "append("], ["i", "s "], ["\"]", ", "], ["=", "True"], ["roun", "d("], ["n_", "head"], ["default", "="], ["。\", ", "(\"tool\", \""], ["\")", "),"], ["c", "lient"], ["创", "新"], ["软", "件"], ["高", "效"], ["前", "沿"], ["高", "性能"], ["【工作", "职责】"], ["通", "信"], ["o", "ol"], ["记", "录"], ["一致", "性"], ["路", "由"], ["）", "、"], ["s", "/"], ["生", "成"], ["s.", "py"], ["扩", "容"], ["c", "rew"], ["_", "log"], ["antnest_llm", "."], ["rol", "e"], ["────────", "────────"], ["k", "e"], ["str", ":"], ["F", "alse"], ["m", "("], ["[", "'"], ["\", ", "type="], [", ", "default="], ["po", "ol"], ["├", "── "], ["#", "   "], ["推", "动"], ["熟", "练"], ["、", "C"], ["链", "路"], ["判", "断"], [" ", "Ant"], ["ad", "c"], ["adc", "ase"], ["长", "期"], ["记", "忆"], ["u", "b"], ["ulti", "-"], ["可", "能"], ["f", "lo"], ["后", "训练"], ["## M", "0 "], ["1", "+ "], ["ex", "tr"], ["extr", "ac"], [" ", "4"], ["通过", "率"], ["8", " "], ["GRPO", " "], ["w", "ar"], ["u", "p"], ["**", "（"], ["措", "辞"], ["anch", "or"], ["α", " "], ["```", "python"], ["me", "r"], ["c", "i"], ["=", "False"], ["}", "_"], ["se", "r"], [":", "."], ["f", "}"], ["好", "的"], ["A", "P"], ["，", "持续"], ["【", "加分"], ["【加分", "项"], ["【加分项", "】"], ["资", "源"], ["了", "解"], ["与", "数据"], ["，", "而"], ["直", "接"], ["经验", "，"], ["at", "i"], [" ", "L"], ["历", "史"], ["n", "er"], ["（", "含"], ["## M", "1+ "], ["extrac", "te"], ["re", "view"], ["b", "pe"], ["多", "轮"], ["| ", "M"], ["[0", "]"], ["*", " "], ["action", "_"], [" + ", "1"], ["self.", "_"], ["None", ", "], ["tok", "."], ["g", ")"], ["flo", "at"], ["_s", "core"], ["(", "ART / f\"{"], [": ", "{"], ["，", "让"], ["招", "聘"], ["不", "同"], ["AP", "I"], ["计算", "机"], ["及", "以上"], ["世", "界"], ["模", "式"], ["热", "情"], ["l", "an"], ["需", "要"], ["O", "pen"], ["配", "置"], ["a", "v"], ["an", "d "], ["标", "准"], ["本", "地"], ["选", "择"], [" ", "3"], [" ", "<"], [" ", "×"], ["fin", "d"], ["v", "4"], [".py", "`"], ["EADM", "E"], ["L", "_"], ["en", "code"], ["python -m ", "antnest_llm."], ["。", "\"\"\""], ["load_", "corpus_"], ["# ", "-"], ["# -", "*"], ["# -*", "- "], ["# -*- ", "coding"], ["# -*- coding", ": "], ["# -*- coding: ", "utf-8"], ["# -*- coding: utf-8", " -"], ["# -*- coding: utf-8 -", "*"], ["# -*- coding: utf-8 -*", "-"], ["t", " = "], ["_", "pool"], ["产品", "的"], ["中", "的"], ["扩", "展"], ["实", "践"], ["R", "L "], ["合", "规"], [" ", "AGI "], ["通", "用"], [" Ant", "Nest "], ["，", "从"], ["机", "制"], ["T", "ool"], ["响", "应"], [" ", "J"], ["算", "子"], ["I", "T"], ["综", "合"], ["u", "e"], ["R", "M "], ["promp", "t "], ["antNest ", "LLM "], ["32 ", "个"], ["antnest_harness", "/"], ["结", "束"], ["工具", "调用"], ["BP", "E "], ["LLM", "Client"], ["轨迹", "回流"], [", ", "tool"], ["_", "loss"], ["对比", "学习"], ["晋", "升"], ["max", "("], ["  ", "# "], ["hist", "ory"], ["\"\"\"", "Agent "], ["best", "_"], [" ", "is "], ["du", "mp"], ["re", "_"], ["as", "ci"], ["asci", "i"], ["read_", "text("], [" == ", "\""], ["\")", "."], [", ", "_"], [":", "]"], ["arg", "s"], ["(model, ", "tok, "], ["model", "."], ["c", "md"], ["一", "下"], ["│", "   "], ["扎", "实"], ["语", "言"], ["发", "现"], ["本", "科"], ["0", "8"], ["模型", "训练"], ["可", "用"], ["原", "理"], ["隔", "离"], ["交", "互"], ["D", "e"], ["成", "功"], ["观", "察"], ["输", "出"], ["de", "r"], ["数据", "产品经理"], ["1", "7"], ["已", "完成"], ["me", "tr"], ["metr", "ic"], ["antnest_", "te"], ["out", "pu"], ["outpu", "ts"], ["|", "---|---|"], ["to", "t"], ["ex", "ample"], ["_p", "refix"], [", ", "4"], ["ate", "_"], ["s", "="], ["s = ", "["], ["\")", ":"], ["read_text(", "encoding=\"utf-8\")"], [".get", "(\""], [" / ", "\""], ["w", "er"], ["wi", "th"], ["\": ", "round("], ["he", "lp"], ["help", "=\""], ["re", "c"], ["。\", {\"p\": \"", "/workspace/antnest/artifacts/"], ["支", "持"], ["实", "验"], ["快", "速"], ["可", "靠"], ["，", "或"], ["学", "历"], [" ", "S"], ["类", "别"], ["数据", "工程师"], ["模型", "的"], ["优秀", "的"], ["角", "色"], ["，", "以"], ["返", "回"], ["，", "在"], ["b", "adcase"], ["b", "o"], ["DS", "ec"], ["物", "理"], ["时", "代"], ["前", "端"], ["所", "有"], ["协", "议"], ["o", "ck"], ["不", "是"], ["入", "库"], ["主", "场"], ["维", "度"], ["外", "部"], ["严", "格"], ["ckp", "t."], ["命", "令"], ["样", "本"], ["read_", "file"], ["S", "ON"], ["m", "o"], ["antnest_te", "am"], [" | ", "`"], ["me", "an"], [" | 0.", "000"], ["工具", "选择"], ["ex", "pe"], ["al", "p"], ["alp", "h"], ["5", "-"], ["multi_", "av"], ["ate", "("], ["c", "la"], [".get", "("], ["\"}", ")"], ["id", "s"], [") -> ", "str:"], ["json.", "dump"], ["json.dump", "s("], ["en", "su"], ["ensu", "re_"], ["ensure_", "ascii"], ["ensure_ascii", "=False"], [" = ", "Path"], ["ans", "wer"], [".par", "ent"], ["get", "(\""], [" ", "el"], ["er", "at"], ["main", "()"], ["开发", "工程师"], ["仓", "库"], ["，", "你"], ["性", "。"], ["良", "好的"], ["/", "算法"], ["【岗位", "类别"], ["【岗位类别", "】："], ["，", "具备"], ["优先", "。"], ["方向", "、"], ["方", "式"], ["管", "线"], ["DM", "A"], ["Agent ", "Harness "], ["背", "景"], ["第", "一"], ["人", "才"], ["rou", "p"], ["C", "L"], ["u", "n"], ["拒", "绝"], ["产", "物"], ["l", "on"], ["情", "感"], ["u", "re"], ["方案", "》"], ["梯", "度"], ["ckpt.", "p"], ["vocab", ".json"], ["ex", "ist"], [" ", "SFT "], ["示", "例"], ["R", "EADME"], ["T", "OO"], ["s", "core"], ["alph", "a_"], ["multi_av", "g"], ["{\"", "action"], ["load_corpus_", "v"], ["__", "in"], ["__in", "it"], ["__init", "__"], [": str", ", "], [": ", "int"], [" ", "- "], ["None, ", "None"], ["su", "m("], ["k", "in"], ["fi", "g"], ["\", type=", "int"], ["\", type=int", ", default="], ["{\"", "cmd"], [", ", "args."], ["│   ", "├── "], ["基", "座"], ["观", "测"], ["应", "用"], ["、", "网络"], ["至", "少"], ["贡", "献"], ["个", "人"], [" ", "的"], ["，", "为"], ["深度", "学习"], ["P", "ython"], ["完", "整"], ["，", "包括"], ["日", "志"], ["（", "如"], ["成", "本"], ["清", "晰"], ["k", "i"], ["n", "g"], ["办", "公"], ["I", "n"], ["故", "障"], ["g", "roup"], ["上", "限"], ["保", "存"], ["en", "sor"], ["基", "线"], ["接", "入"], ["升", "级"], ["i", "te"], ["与", "训练"], ["财", "务"], ["计", "划"], ["9", " "], ["antNest ", "Harness "], ["val", " "], ["d", "at"], ["%", " "], ["3", " | "], ["损", "失"], ["rep", "or"], ["t.", "md"], [".py", " "], ["f", "or"], ["r", "or"], ["冲刺", "报告"], ["3", "8"], ["Ant", "Nest"], ["）", "**"], ["eval", "se"], [" | ", "✅"], ["动作", "空间"], ["自", "我"], ["fin", "d "], ["}", " "], ["from ", "path"], ["from path", "li"], ["from pathli", "b"], ["from pathlib", " import "], ["from pathlib import ", "Path"], ["cla", "ss"], ["mer", "ge"], ["i", " in "], ["[", "i"], ["(", "p"], [" ", "+= "], ["t.", "get(\""], ["te", "mp"], ["temp", "erat"], ["temperat", "ure"], [".", "s"], ["1", ")"], ["model", "_con"], ["model_con", "fig"], ["y", "er"], ["f", "x"], ["]", "),"], ["        ", "    "], ["效", "率"], ["设计", "、"], ["本科", "及以上"], ["研发", "工程师"], [" ", "p"], ["反", "馈"], ["信", "号"], ["生", "产"], ["增", "量"], ["行", "为"], ["经", "历"], ["在", "线"], ["C", "PU"], ["引", "擎"], ["真", "正"], ["方", "法"], ["进", "行"], ["em", "ory"], ["公", "司"], ["风", "险"], ["DSec", " "], ["相", "信"], ["当", "前"], ["nt", "i"], ["R", "E"], ["d", "o"], ["C", "o"], ["C", "h"], ["N", "E"], ["错", "误"], ["《", "2"], ["）", "研究员"], ["py", "test"], ["1", "0"], ["C", "U"], ["启", "动"], ["结", "论"], ["直", "连"], ["repor", "t.md"], ["antnest_team", "/"], ["3", "3"], ["best", " "], ["`", "（"], ["ckp", "t"], [")", " + "], ["过程", "奖励"], ["pass@", "k"], ["1", "67"], ["课", "程"], ["traj", "s.json"], ["trajs.json", "l"], ["tot", "al"], ["链", "式"], ["0.", "5"], ["ru", "n_"], ["三", "元"], ["三元", "组"], ["| ", "`"], ["base", "_"], ["ite", "m"], ["rip", "()"], ["ke", "y"], ["s", ":"], [": ", "list"], ["）。", "\"\"\""], ["cont", "in"], ["contin", "ue"], ["t", "ensor"], ["tensor", "("], ["id", "s["], ["model_config", ".json"], ["new", "_"], ["\"}", ","], ["帮", "我"], ["(\"", "finish"], ["(\"finish", "\", "], ["{\"cmd", "\": \""], ["p_", "len"], ["(", "x"], ["\":", "\""], ["系统", "的"], ["的", "技术"], ["本科及以上", "学历"], ["0.", "0"], ["【岗位类别】：", "全职"], ["2.", " "], ["全", "部"], ["采", "集"], ["R", "L"], ["C", "P"], ["操", "作"], ["badcase", " "], ["工作", "。"], ["系统", "性"], ["、", "S"], ["转", "化"], ["合", "作"], ["科", "学"], ["自己", "的"], ["Agent ", "Loop"], ["ine", "er"], ["ineer", "ing"], ["社", "区"], ["思", "考"], ["运", "营"], ["写", "入"], ["O", "S"], ["d", "ro"], ["编", "译"], ["——", " "], ["而", "非"], ["文", "档"], ["版", "本"], ["看", "看"], ["p", "er"], ["A", "N"], ["资", "产"], ["创", "作"], ["解", "析"], ["质量", "门禁"], [" ×", " "], ["32 ", "份"], ["checkpoint", " "], ["（", "P"], ["metric", "s.json"], ["w", "c"], ["T", "ok"], ["Tok", "en"], ["Token", "izer"], ["收", "敛"], [" antNest ", "LLM "], ["De", "code"], ["退", "火"], ["Nest", "Agent"], ["团队", "交付物"], ["ran", "k"], ["R", "M"], ["L", "5 "], ["expe", "ct"], ["自我", "进化"], [" | 0.", "5"], ["ac", "k"], [".", "."], [" | ", "Agent "], ["sp", "li"], [".st", "rip()"], ["ran", "ge"], ["s.", "append("], ["None", ":"], ["json.", "load"], ["json.load", "s("], ["d", "type="], ["torch.", "lon"], [" ", "a"], ["res", "ult"], ["\"], ", "cfg[\""], ["\"]", ","], ["p", "fx"], ["招聘", "方向"], ["、", "数据"], ["【岗位", "职责】"], ["可", "观测"], ["掌", "握"], ["，能", "够"], ["没", "有"], ["下一", "代"], ["，", "用"], ["正", "确"], ["瓶", "颈"], ["品", "味"], ["全", "栈"], ["全", "链路"], ["，", "是"], ["底", "层"], ["u", "st"], ["1.", "负责"], ["针", "对"], ["组", "织"], ["调", "优"], ["常", "见"], ["形", "态"], ["愿", "意"], ["支", "撑"], ["每一", "次"], ["下", "的"], ["问题", "。"], ["DMA", " "], ["ulti-", "Agent"], ["候", "选"], ["E", "ng"], ["Eng", "ineering"], ["开源", "社区"], ["路", "线"], ["b", "e"], ["满", "足"], ["，", "但"], ["C", " "], ["行", "政"], ["R", "A"], ["ac", "t"], ["（", "数据"], [" ", "步"], ["3", "4"], ["为", " "], ["）", "+ "], ["extracte", "d"], ["s", "ample"], ["2", "00"], ["----", "--"], ["war", "m"], ["warm", "up"], ["Tool", "Re"], ["ToolRe", "gist"], ["ToolRegist", "r"], ["ToolRegistr", "y"], ["p", "lan"], ["grep", "/"], ["E", "r"], ["Er", "ror"], ["Crew", " "], ["AntNest", "LLMClient"], ["le", "an"], ["chat", "_c"], ["chat_c", "rew"], ["|---|---|", "---|---|"], ["s", "se"], ["语料", " v"], ["参数", "键"], ["攻", "坚"], ["回", "填"], ["ra", "st"], ["。", "\")"], ["（", "t"], ["p", "refix"], ["运行", "数据"], ["name", "\": \""], ["list", ":"], ["_", "se"], ["g", "lo"], ["glo", "b"], ["\\n", "\""], [" = [", "]"], ["la", "m"], ["lam", "bd"], ["lambd", "a"], ["dtype=", "torch.lon"], ["arg", "parse"], ["di", "m"], ["n_", "la"], ["n_la", "yer"], ["\", \"", "q"], ["sft", "_"], ["c", "\": \""], ["线", "上"], ["招聘方向", "【"], ["深度", "参与"], ["搭", "建"], ["离", "线"], ["性", "、"], ["\"", "的"], ["好", "奇"], ["细", "节"], ["O", "I"], ["极", "致"], ["2.", "熟悉"], ["转化", "为"], ["ub", "agent"], ["共同", "进化"], ["逻", "辑"], ["C", "ode"], ["其", "他"], ["表", "达"], ["o", "d"], ["说", "明"], ["问", "答"], ["编", "码"], ["H", "R"], ["动", "态"], ["逐", "步"], ["1.", " **"], ["9", "5"], ["K", " "], ["ckpt.p", "t"], ["on", "ly"], ["------", "|"], ["tra", "in "], ["de", "mo"], ["命", "中"], ["择", "优"], ["7", " "], ["2", " | "], ["0.", "2"], ["(", "r"], ["rep", "ly"], ["_", "ok"], ["n", "ll"], ["_", "B"], ["5", "："], ["_c", "tr"], ["回归", "门禁"], ["g", "re"], ["def ", "__init__"], ["t", "("], [") ", "- "], ["def ", "_"], ["write_", "text("], ["o", "i"], ["c", "ep"], ["id", "s = "], ["dtype=torch.lon", "g)"], ["_", "gr"], ["_gr", "ad"], [" = torch.", "tensor("], ["dim", "="], ["step", "s"], ["kin", "d"], ["# ", "M"], [" el", "se "], ["default", "=\""], ["}", ","], ["wc", " -"], ["re", "gist"], ["regist", "er"], ["q", ", "], ["par", "am"], ["ame", "ter"], [" = ", "self."], ["。", "\","], ["client", "."], ["端", "开发工程师"], ["协", "同"], ["一", "起"], ["紧", "密"], ["能力", "，"], ["成", "果"], ["扎实", "的"], ["能力", "和"], ["面", "向"], ["优化", "。"], ["大", "型"], ["协", "助"], ["监", "控"], ["-", "4"], ["部", "署"], ["者", "优先。"], ["人", "类"], ["实", "习"], ["数据", "处理"], ["的", "新"], ["噪", "声"], ["好奇", "心"], ["4.", "有"], ["校", "验"], ["一", "定"], ["兴", "趣"], ["消", "息"], ["K", "V"], ["感", "知"], ["y", " "], ["持续", "学习"], ["ac", "he"], ["生", "活"], ["基", "本"], ["、", "P"], ["行", "业"], ["人", "的"], ["相关", "的"], ["作", "为"], ["的", "人"], ["设", "备"], ["的", "能力"], [" ", "N"], ["实", "际"], ["《", "1"], ["超", "算"], ["保", "持"], ["。", "你"], ["指", "令"], ["M", "O"], ["积", "累"], ["大模型", "训练"], ["i", "g"], ["I", "D"], [" ", "T"], ["继", "续"], ["每", "次"], ["变", "更"], ["IT", " "], ["e", "d"], ["“", "主场"], [" ", "prompt "], ["）", "**："], ["300", " 步"], ["3", "3 "], [".", "t"], ["and", "bo"], ["andbo", "x"], ["dat", "a"], ["4", "0"], ["语", "义"], ["线", "性"], ["动作", "协议"], ["DSec ", "沙箱"], ["test", "_"], ["加", "载"], ["c", "lean"], ["放", "大"], ["evalse", "t."], ["evalset.", "json"], ["T", "AS"], ["TAS", "K"], ["TASK", "_"], ["TOO", "L_"], ["grpo", "5"], ["**：", "`"], ["_", "example"], ["g", "o"], ["动作", "示例"], ["e", "vo"], ["cont", "rast"], [" ", "("], ["5", "8"], ["进化", "史"], ["grep/", "find "], [".py`", " | Agent "], ["pass", "k"], ["ge", "n"], ["# ", "antnest_llm/"], ["def __init__", "(self, "], [" = ", "{"], [", ", "c"], [".", "item"], ["# ", "── "], ["range", "("], ["]", ")"], ["f", "."], ["f", "un"], ["fun", "c"], [" a", "s "], ["}", ")"], [".s", "ize"], [":.", "3"], ["查", "看"], ["O", "G"], ["time", "."], [")}", " "], ["{\"", "dir"], ["(\"", "帮我"], ["一下", " "], [".par", "ameter"], [".parameter", "s()"], ["：", "\", \""], ["(\"finish\", ", "None, None"], ["\",", "\""], ["作", "品"], ["全职", "】："], ["大", "的"], ["责", "任"], ["熟练", "掌握"], ["方案", "。"], ["3", "2"], ["模型", "在"], ["3.", " "], ["预训练", "数据工程师"], ["高", "质量"], ["(", "2"], ["识", "别"], [" P", "ython"], ["日", "常"], ["模型", "能力"], ["有", "强"], ["追", "求"], [" 等", "）"], ["内", "存"], ["延", "迟"], ["与 ", "Harness "], ["面", "对"], ["深度", "使用"], ["以", "及"], ["选", "型"], ["”", "的"], ["提", "取"], ["U", "I"], ["u", "s"], ["关", "系"], ["脚", "本"], ["推", "进"], ["主", "流"], ["互", "联"], ["演", "进"], ["C", "E"], ["v", "2"], ["并", "行"], ["编译", "器"], ["GPU", " "], ["i", "le"], ["a", "f"], ["\"", "。"], ["根", "因"], ["服务", "器"], ["渲", "染"], ["强", "化"], ["ar", "ts"], ["项", "："], ["兼", "容"], ["G", "S"], ["ing", " "], ["F", "ro"], ["Fro", "nti"], ["Fronti", "er"], [" ", "5"], ["管", "培"], ["公", "有"], ["2.", " **"], ["审", "查"], ["n", "or"], ["，", "M"], ["白", "名"], ["白名", "单"], ["3", "9"], ["1", " | "], ["# ", "2"], ["S", "T"], ["关键", "词"], ["re", "ad"], [" C", "rew"], ["4", "0 "], [" ", "2 "], ["s", "ist"], ["/", "19"], ["对话", "模式"], ["L", "-"], ["独立", "评测"], ["_", "co"], ["4", " | "], ["rou", "te"], ["L", "3 "], ["L", "4 "], ["动作", "分"], [" | ", "\""], ["链式", "任务"], ["在线", "自我进化"], ["M", "5 "], ["观察", "回填"], ["负", "例"], ["下一", "步"], ["多轮", "上下文"], [" ", "+"], ["1", "]"], ["{\"action", "\": \""], ["at", "("], ["README", ".md"], ["q", "a_"], ["fa", "il"], ["de", "code"], ["import ", "json"], ["()", ", "], [") ", "for "], ["spli", "t"], [" ", "if "], ["s", "\"]"], [" = Path", "(\""], ["\"", "\\n"], ["id", "s, "], ["_", "answer"], ["ac", "t.get(\""], ["!", "= "], ["], ", "dtype=torch.long)"], [" = ", "model"], ["[:", ", "], [", 4", "),"], [":.3", "f}"], ["）", "\")"], ["\", ", "default=\""], ["ol", "d_"], ["exist", "s()"], ["=True", ")"], ["e", "_"], [".get(", "'"], ["']", "}"], ["\", \"q", "\": \""], ["{\"dir", "\": \""], ["\", \"", "name\": \""], ["cont", "ent"], ["lo", "sse"], ["l", "n"], ["<", "|"], ["|", ">"], ["\", ", "(\"tool\", \""], ["\"})", "),"], ["T", "H"], ["3.", "具备"], ["责任", "心"], ["主", "动"], ["至少", "一"], ["加", "入"], ["成", "绩"], ["主", "导"], ["本科及以上学历", "，"], ["3.", "有"], ["平", "衡"], ["1.", " "], ["C", "+"], ["不", "限"], ["规", "范"], ["R", "ust"], ["1.", "对"], ["的", "理解"], ["2.", "对"], ["敏", "锐"], ["短", "板"], ["，", "熟悉"], [" C", "PU"], ["深入", "理解"], ["会", "议"], ["AI ", "搜索"], ["，而", "是"], ["任", "何"], ["这", "里"], ["之", "间"], ["生", "态"], ["模型", "、"], [" R", "DMA "], ["加", "速"], ["，", "探索"], ["管理", "、"], ["自", "进化"], ["任", "职"], ["能", "够"], ["到", " "], ["有", "极"], ["ulti-", "Agent "], ["t ", "Engineering"], ["是", "否"], ["失", "败"], ["中", "文"], ["的", "事"], ["虚", "拟"], ["任", "一"], ["of", "f"], ["确", "保"], ["不", "会"], ["在", " "], ["你", "的"], ["客", "户"], ["（", "CPU"], ["同", "时"], [" ", "—— "], ["i", "t "], ["拆", "解"], ["续", "训"], ["里", "有"], ["员", "工"], ["每", "个"], ["AI ", "产品经理"], ["精", "准"], ["均", "可"], ["（", "J"], ["构", "造"], ["法", "律"], ["审", "美"], ["形", "成"], ["释", "放"], ["核心", "业务"], ["战", "略"], ["loss", " "], ["同", "一"], ["里", "程"], ["里程", "碑"], ["- ", "训练"], ["token", " "], ["清", "单"], ["联", "合"], [".t", "xt"], ["3", "/"], ["tool", "s.py"], ["2", ","], ["pytest", " "], ["finish", " "], ["5 ", "号"], ["i", " "], ["余", "弦"], ["AN", "T"], ["ANT", "NE"], ["ANTNE", "ST"], ["ANTNEST", "_"], ["ANTNEST_", "LLM"], ["ANTNEST_LLM", "_"], ["笔", "记"], ["review", "er"], ["演", "示"], ["antnest_team/", "outputs"], ["3.", " **"], ["BP", "E"], ["源", "码"], ["ss", "ist"], ["ssist", "ant"], ["e", "po"], ["epo", "ch"], ["新增", " "], ["_con", "sist"], ["18", "/19"], ["chat", "_log"], ["**", " |"], ["(", "0."], ["冷", "启动"], ["独立", "评测集"], [" 0.", "2"], [" ", "QA "], ["即", "训练"], ["08", "3"], ["奖励", "课程"], ["24", "7"], ["选", "对"], ["AR", "GS"], ["(1", ", "], [" | 0.", "167"], ["name", ", "], ["成", "报告"], ["c", "on"], ["m", "arg"], ["multi_", "pass"], ["v", "5 "], ["新", "轨迹"], ["for", "ce"], ["全", "通"], ["b", "ack"], ["base", "_prefix"], ["out", "_prefix"], ["查", "找"], ["action_", "pass"], [" + ", "Agent "], ["s", "a"], ["sa", "ve"], [": ", "dict"], [" = ", "("], ["read_text(encoding=\"utf-8\")", ")"], ["W", "S"], ["tr", "y"], ["try", ":"], ["ex", "cep"], ["excep", "t "], ["=", "1"], ["re", "."], ["arg", "s = "], ["ce", "("], ["torch.", "no"], ["torch.no", "_grad"], ["torch.no_grad", "()"], ["tok.", "encode"], ["logits", ", _"], ["))", ")"], ["-1", "]"], ["to", "list"], ["tolist", "()"], ["with", "(\""], ["parse", "_"], ["_score", "s)"], ["ate_", "dict"], ["t", "[\""], ["s[", "'"], [".", "A"], ["\", ", "help=\""], ["\").", "write_text("], ["__", "name"], ["__name", "__"], [".", "exists()"], ["tra", "js"], ["time.", "time"], ["：", "{"], ["rec", "['"], ["D", "E"], ["wc -", "l"], ["\", \"name\": \"", "*"], ["re", "sp"], ["n", "ume"], ["nume", "l"], ["b", "p"], ["to", "t_"], ["op", "}_"], ["u", "ser"], ["结束", "。"], ["[", "(1"], ["[(1", ", \""], ["(2", ", \""], ["\", ", "(\"finish\", None, None"], ["\", (\"finish\", None, None", "))"], ["\", (\"finish\", None, None))", "]),"], ["c", "all"], ["v", "l"], ["# ", "antnest_harness/"], ["sc", "rip"], ["m", "[\""], [".py", "            "], ["研究", "中"], ["研究中", "台"], ["，", "构建"], ["与 ", "AI "], ["，你", "将"], ["基", "建"], ["，", "与"], ["稳定", "性"], ["架构", "设计"], ["2.", "具备"], ["千", "万"], ["开发", "经验。"], ["全栈", "开发"], ["全栈开发", "/算法"], ["d", "-"], ["强", "的"], ["围", "绕"], ["多", "样"], [" ", "U"], ["数据", "的"], ["a", "sh"], ["人", "工"], ["周", "期"], ["治", "理"], ["，", "设计"], ["体系", "，"], ["的", "性能"], ["经历", "。"], ["水", "平"], ["论", "文"], ["原", "生"], ["只", "是"], ["量", "的"], ["最", "优"], ["q", "u"], ["、", "多"], ["出", "发"], ["模", "块"], ["团队", "》"], ["领域", "的"], ["团队", "的"], ["年", "以上"], ["as", "on"], ["才", "能"], ["更", "多"], ["可", "以"], ["，", "我们"], ["，", "将"], ["经验，", "熟悉"], ["洞", "察"], ["质量", "保障"], ["每", "一个"], [" ", "G"], ["跨", "界"], ["影", "响"], ["超算", "集群"], ["抽", "象"], ["模型", "结构"], [" ", "I"], [" R", "L "], ["ati", "on"], ["本", "身"], ["最", "终"], ["怎", "么"], ["必", "须"], ["认", "知"], ["专业", "领域"], ["都", "有"], ["专", "项"], ["强化", "学习"], ["崩", "溃"], ["依", "赖"], ["L", "S"], ["起", "点"], ["写", "作"], ["（数据", "/算法"], ["（数据/算法", "）研究员"], ["多模态", "理解"], [" ", "QA"], ["管培", "生"], ["法", "务"], ["预", "算"], ["分", "离"], [".py", "）"], ["2", "："], ["1", "）"], ["：", "以"], ["）", "与"], ["（Agent ", "2"], ["：", "训练"], ["nn.", "L"], ["L", "U"], ["参数", "化"], ["# ", "1"], ["解", "码"], ["5", " | "], ["tokenizer", " "], [" ", "SFT"], ["memory", ".md"], ["ant", "Nest"], ["Open", "AI"], ["OpenAI", "Co"], ["OpenAICo", "mp"], ["OpenAIComp", "at"], ["OpenAICompat", "Client"], ["ock", "LLM"], ["buil", "der"], [" J", "SON"], ["工具", "："], ["sh", "ap"], ["s", "andbox"], ["对", "应"], ["# ", "3"], ["M", "1 "], ["## ", "一"], ["## 一", "、"], ["## ", "二"], ["## ", "三"], ["## ", "四"], [" ", "3 "], ["/", "1"], ["1", "（"], ["a", "ssistant"], [" ", "artifacts/"], [" <", " "], ["do", "c"], ["6", ","], ["归", "一"], ["chat_log", ".md"], [" ", "sft"], ["展", "开"], ["模型", "放大"], ["组", "内"], ["3", ")"], ["ati", "o"], ["（", "`"], ["| ", "sft"], ["：", "`"], ["使用", "即训练"], ["自", "一致性"], ["五", "级"], [" → ", "**"], ["--", "traj"], ["围", "栏"], ["`", "，"], ["6", " | "], ["run_", "multi_"], ["run_multi_", "step"], ["3.", "4"], ["工具", "名"], [" | 0.", "4"], [" ", "文件"], ["数", "量"], ["v", "5"], ["(", "任务"], ["动态", "调度"], ["ti", "t"], ["tit", "le"], ["| `", "antnest_llm/"], ["corpu", "s "], ["multi", "turn"], ["法", "："], ["dro", "p"], ["qa_", "h"], ["m ", "in "], ["p", " in "], ["en", "ume"], ["enume", "r"], ["enumer", "ate("], ["me", "th"], ["meth", "od"], ["c", "l"], ["_", " in "], ["_ in ", "range("], [": str", ") -> "], ["1", ":"], [" is ", "None:"], ["s = [", "]"], ["s ", "+= "], [".", "j"], [".j", "o"], [".jo", "in"], ["(", "path"], [", ", "ensure_ascii=False"], ["load_", "tokenizer"], ["st", "oi"], ["()", " -> "], ["(\"", "*"], [".append(", "("], [", ", "block_size"], ["n", " = "], ["torch.", "nn."], ["res", "olve"], ["resolve", "()"], ["J", "SON"], ["\", ", "\"\""], ["s", ": list"], ["of", "t"], ["min", "("], ["(", "-1"], ["idx", ", "], [".", "tolist()"], ["# ", "──"], ["self", "_consist"], ["cfg[\"", "vocab"], ["\", ", "["], ["def ", "main()"], ["def main()", ":"], ["if ", "__name__"], ["if __name__", " == \""], ["if __name__ == \"", "__"], ["if __name__ == \"__", "main"], ["if __name__ == \"__main", "__"], ["if __name__ == \"__main__", "\":"], ["RA", "J"], ["L", "OG"], ["K", "E"], ["KE", "Y"], ["c", "and"], ["'", ")}"], [" = ", "\""], ["extracte", "d "], ["l", "s "], ["/workspace/", "README.md"], ["_", "S"], ["action", ".get(\""], ["o", "b"], [".", "numel"], ["return ", "None"], ["q, ", "a"], ["train", "_pool"], [" {", "len("], ["n_embd", ", "], ["。\", ", "{\"cmd\": \""], ["**", "用户"], ["**用户", "**："], ["**", "蚁巢"], ["致", "力"], ["致力", "于"], ["招聘方向【", "全职】："], ["，", "保障"], ["1.", "有"], ["、", "数"], ["价", "值"], ["实", "时"], ["底", "座"], ["相关", "专业"], ["最", "大"], ["知", "名"], ["优", "异"], ["的", "核心"], ["数据", "采集"], ["多模态", "数据"], ["保", "证"], ["设计", "与"], ["控", "制"], ["熟练", "使用"], ["团队", "协作"], ["善", "于"], ["能力", "，能"], ["产品", "、"], ["结", "合"], ["等", "）"], ["阶", "段"], ["适", "配"], ["、", "存储"], ["4.", "对"], ["清", "楚"], ["/", "I"], ["操作", "系统"], ["准", "确"], ["成", "为"], ["在", "这里"], ["，", "更"], ["意", "识"], ["新", "范式"], ["D", "A"], ["科", "研"], ["主", "要"], ["基", "于"], ["与 ", "M"], ["场景", "下的"], ["【", "任职"], ["【任职", "要求】"], ["候选", "人"], ["转化为", "可"], ["融", "入"], ["收", "集"], ["跟", "踪"], ["），", "并"], ["状", "态"], [" ", "4 "], ["的事", "情"], ["In", "f"], ["Inf", "ra"], ["挑", "战"], ["负", "载"], ["开", "始"], ["多", "个"], ["极", "限"], ["决", "定"], ["3.", "对"], ["这", "个"], ["动", "手"], ["电", "力"], ["万", "卡"], ["任务", "的"], ["精", "通"], ["P", "A"], ["。我们", "不"], ["高性能", "算子"], ["推理", "框架"], ["接", "口"], ["an", "g"], ["关", "注"], ["AS", "S"], ["读", "取"], ["希", "望"], ["成", "长"], ["，", "\""], ["两", "个"], ["足", "够"], ["决", "策"], ["W", "e"], ["We", "b"], ["机", "房"], ["里", "的"], ["关键", "指标"], ["加分", "。"], ["更", "新"], ["端", "到"], ["端到", "端"], ["：", "Agent "], ["评测", "体系"], ["sc", "al"], ["ar", "ch"], ["《", "3"], ["替", "代"], ["《", "0"], ["# ", "0"], ["起", "步"], ["真实", " LLM "], ["（Agent ", "3"], [" ", "0"], ["，", "无"], ["权", "重"], ["，", "任务"], ["1", "3"], ["前", "缀"], ["28", " "], ["E", "_"], ["e", " "], ["职位", "文件"], ["Decode", "r"], ["Decoder", "-"], ["Decoder-", "only"], ["0", " | "], ["（", "1"], ["Nest", "Crew"], ["co", "mple"], ["test", "s/"], ["------|", "------|"], ["模", "板"], ["\"", "蚁巢"], ["铸", "造"], ["3", "-"], ["区", "间"], ["：", "**"], ["贪", "心"], ["归一", "化"], ["Ch", "ar"], ["什么", "？"], [" ", "checkpoint"], ["| ", "**"], ["外部", "合规"], ["外部合规", "语料"], ["） | ", "✅"], ["） | ✅", " | "], ["eval", "s/"], ["evals/", "evalset.json"], ["v", "4 "], ["7.", "7"], ["ex", "tra"], ["TASK_", "PO"], ["TASK_PO", "O"], ["物理", "隔离"], ["| ", "grpo"], ["遗", "忘"], ["6", "00"], ["公有", "领域"], [" ", "grpo"], [" P", "RM "], ["**", " "], ["（", "2"], [" P", "RM"], ["选对", "工具"], ["0.", "1"], ["**", " | "], ["arg", "s, "], ["成功", "轨迹"], ["ru", "n"], ["保", "留"], ["工具选择", "攻坚"], ["动作空间", "对比学习"], [" | **0.", "5"], ["列", "出"], ["evolve", "_log"], ["evolve_log", ".json"], ["evolve_log.json", "l"], ["python -m antnest_llm.", "evolve"], ["多步", "全通"], ["(任务", ", "], ["动作", ") "], ["α ", "动态调度"], ["跌", "幅"], ["def ", "build_"], ["s = ", "{"], ["团队", " | "], ["v", "6 "], ["arg", "s\": "], ["α", "_"], ["g", "ate_"], ["批", "量"], ["t", "up"], ["tup", "le"], ["i", ", "], ["(\"", "\\n"], ["sor", "te"], ["sorte", "d("], ["for ", "_ in range("], [" ", "and "], ["return ", "["], ["]", " for "], [".join", "("], ["tok", " = "], ["f ", "in "], ["WS", " / \""], ["glob", "(\"*"], [" ", "not "], [" not ", "in "], [" / ", "len("], ["7", "-"], ["_", "ids, "], [", ", "y"], ["func", "tion"], ["gre", "ed"], ["greed", "y"], ["greedy", "_answer"], ["\\", "s"], ["\\s", "*"], ["str", "("], ["q", "a"], ["to", "p_"], ["top_", "k"], ["logits, _", " = model"], ["(", "idx"], ["dim=", "-1"], ["tok.", "decode"], ["\"]", ")"], ["eval", "()"], ["h", "its"], ["s", "[\""], ["r", "g"], ["P", "ar"], ["T", "RAJ"], ["_", "KEY"], [" ", "* "], ["arts", "with(\""], [" R", "EADM"], [" READM", "E "], ["(\"", "把"], ["/workspace/", "extracted"], [" | ", "wc -l"], ["prompt", ", "], ["s ", "- "], ["s - ", "1"], [" = ", "F"], ["T", ", "], ["(ART / f\"{", "bp"], ["(ART / f\"{bp", "}_"], [".", "m"], ["ge", "ner"], ["op", "t."], ["mean", "_"], ["\": ", "args."], ["```action", "\\n"], ["\"", "c\": \""], ["pfx", "}"], ["tool", "s."], ["ki", "ck"], ["kick", "off"], ["mem", "."], ["(", "client"], ["ANTNEST_LLM_", "API"], ["(", "M"], ["服务", "端开发工程师"], ["线上", "核心"], ["线上核心", "服务"], ["数据", "仓库"], ["的", "工程"], ["、", "高效"], ["重", "要"], ["视", "化"], ["效率", "。"], ["、", "高"], ["落地", "。"], ["精", "神"], ["各", "类"], ["千万", "日"], ["千万日", "活"], ["，", "也"], ["个人", "开源"], ["3.", "在"], ["竞", "赛"], ["取", "得"], ["需求", "，"], ["任务", "。"], ["1.", "本科及以上学历，"], ["风", "格"], ["S", " "], ["C+", "+"], ["4.", " "], ["预训练", "数据"], ["、", "多模态"], ["(1", ")"], ["链", "接"], ["优先", "级"], ["知识", "。"], ["挖", "掘"], ["但", "不限"], ["但不限", "于"], ["等", "核心"], ["，", "提升"], ["语料", "清洗"], ["、", "质量"], ["、", "测试"], ["工具", "。"], ["任", "意"], ["ar", "k"], ["，", "善于"], ["标", "注"], ["视", "频"], ["生", "命"], ["生命", "周期"], ["结构", "化"], ["SFT", "/"], ["效", "果"], ["y", "T"], ["yT", "orch"], ["性能", "优化"], ["异", "步"], ["N", "OI"], ["对", "象"], ["、", "内存"], ["AI 搜索", "算法"], ["打", "造"], ["承", "载"], ["依", "据"], [" ", "badcase "], ["1.", "熟悉"], [" AntNest ", "Harness "], ["、", "工程"], ["，", "实现"], ["模型", "与 Harness "], ["数据", "与"], ["在", " AI "], [" Agent ", "产品的"], ["深度使用", "过"], ["、C", "o"], ["社", "群"], ["8", "."], ["O", "P"], ["、", "用户"], ["迭代", "。"], ["、", "A"], ["异", "常"], ["的", "经验。"], ["、", "有"], ["应", "急"], ["C", " / "], ["一", "次"], ["落", "盘"], ["压", "测"], ["这", "些"], [" ", "A"], ["顶", "尖"], ["限", "制"], ["证", "明"], ["智能", "的"], ["以", "下"], ["来", "自"], ["进", "程"], ["充", "满"], ["有", "多"], ["sc", "en"], ["C", "CL"], ["【", "核心"], ["【核心", "要求】"], ["S", "A"], ["Code", " Agent "], ["复", "现"], ["分布式", "存储"], ["平台", "运维"], ["未", "来"], ["如", "果"], ["如果", "你"], ["（", "\""], ["顺", "畅"], ["一个", "你"], ["投", "递"], ["对", "接"], ["工", "单"], ["一", "线"], ["I", " "], ["，", "确保"], ["规划", "、"], ["上", "线"], ["ID", "C"], ["制", "冷"], ["思", "维"], [" C", "h"], ["部", "门"], ["你", "“主场"], ["层", "（"], ["审", "计"], ["数据", "策略"], ["，", "Agent "], ["回", "答"], ["情感", "智能"], ["温", "度"], ["scal", "ing "], ["se", "arch"], ["意", "图"], ["核心业务", "管培生"], ["银", "行"], ["全", "量"], ["1", "-"], ["1", "_"], ["antNest ", "LLM"], ["外", "壳"], ["多", "智能体"], ["Open", "AI "], ["OpenAI ", "兼容"], ["参数", "量"], ["份", "交付物"], ["版", "权"], ["引", "入"], ["检", "测"], ["采", "用"], ["越", "界"], ["回", "传"], ["min", "i "], ["M", "emory"], [" ", "ctx"], ["上下文", "管理"], ["plan", "ner"], [" ", "```action"], ["tool", "s "], [" J", "D "], ["用", "自己"], ["用自己", "铸造"], ["**", "，"], ["## 二", "、"], ["## 三", "、"], ["7", "9"], ["best ", "val "], ["监", "督"], [" Agent ", "Loop"], ["脚", "手"], ["脚手", "架"], ["（", "第"], ["| ", "#"], ["| #", " | "], ["_", "vocab.json"], ["断", "言"], ["en", "c"], ["2", "（"], ["clean", "er"], [" ", ">"], ["25", "6"], ["- ", "`"], ["训练", "与 "], ["建设", "展开"], ["r", "st"], ["v", "3"], ["## ", "五"], [" | ✅", " | "], ["Ch", "at"], [" ", "step"], ["尺", "子"], ["eval", "_co"], ["eval_co", "mp"], ["eval_comp", "ar"], ["eval_compar", "e"], ["eval_compare", ".json"], ["_log", "prob"], ["I", "N"], ["L-", "38"], ["L-38", "4"], ["pass@k", " "], ["真实", "执行"], [" 0.", "15"], ["_", "CU"], ["_CU", "R"], ["_CUR", "R"], ["_CURR", "I"], ["_CURRI", "CU"], ["_CURRICU", "LU"], ["M", "4 "], ["N", "LL"], ["=", "0."], ["综合", "分"], ["rew", "ar"], ["rewar", "d"], [".py", " --"], ["score", "_"], ["pass@", "3"], ["P", "RM "], [" | ✅", " "], ["5-", "1 "], ["example", "s()"], ["i", "ve"], ["期", "望"], ["lp", "_"], [" 4", "0 "], ["（", "+"], [")", " → "], ["多步全通", "率"], ["历史", ", "], ["历史, ", "动作) "], ["对齐税", "再"], ["对齐税再", "平衡"], ["后", "期"], ["corpu", "s.py"], ["，", "返回"], ["go", "al"], ["back", "st"], ["backst", "ory"], ["..", "."], ["ran", "sf"], ["ransf", "or"], ["ransfor", "mer"], ["| ", "2"], ["ic", "en"], ["i", "on"], ["任务", " + "], ["已完成", "，"], ["口", "径"], ["参数", "级"], ["Char", "Tokenizer"], ["class", " "], [" in ", "enumerate("], ["line", ")"], ["b", "re"], ["bre", "a"], ["brea", "k"], ["name", "}"], ["lambda", " p"], ["import ", "torch"], ["corpu", "s"], ["import ", "argparse"], ["sf", "t "], ["(", "__"], ["(__", "file"], ["(__file", "__"], ["(__file__", ")."], ["(__file__).", "resolve()"], ["(__file__).resolve()", ".parent"], ["(__file__).resolve().parent", ".parent"], ["L", "E"], [" = ", "{\""], ["except ", "json."], ["except json.", "JSON"], ["except json.JSON", "Decode"], ["except json.JSONDecode", "Error"], ["except json.JSONDecodeError", ":"], ["return ", "s"], ["action", "\")"], [" ", "!= "], [") ", "if "], ["@", "torch.no_grad()"], ["max_new", "="], [" = torch.tensor(", "["], ["oft", "max("], ["# ──", " M"], ["t ", "in "], ["eval", "u"], ["as", "ser"], ["asser", "t "], ["len(", "tok"], ["TinyGPT", "("], ["block_size", "\"])"], ["(", "torch."], ["model.", "eval()"], ["qa_h", "it"], ["\"", "n_"], ["re", "s['"], ["']", ":.3f}"], ["ap", " = "], ["ap = ", "argparse"], ["ap = argparse", ".A"], ["ap = argparse.A", "rg"], ["ap = argparse.Arg", "ument"], ["ap = argparse.Argument", "Par"], ["ap = argparse.ArgumentPar", "ser"], ["args = ", "ap."], ["args = ap.", "parse_"], ["args = ap.parse_", "arg"], ["args = ap.parse_arg", "s()"], ["artifacts/", "{"], ["old_", "r"], ["new_", "r"], [": ", "float"], ["0", ":"], ["la", "st"], ["last", "_se"], ["last_se", "en"], ["time.time", "()"], ["t", "0, "], ["h", ".get('"], ["\"]", " == \""], ["系", "数"], [" ", "extracted "], ["哪", "些"], ["(\"", "看看"], ["找", "出"], ["{\"p\": \"", "/workspace/antnest/artifacts/"], ["\": ", "{\""], ["tr", "ans"], [".numel", "()"], [" = F", "."], ["re", "f"], ["mean", "()"], [": str", ") -> str:"], ["[", "tool"], ["(", "prompt"], ["ic", "e"], ["\", type=", "float"], ["\", type=float", ", default="], [".item", "()"], ["loss", "_"], ["_loss", "\": round("], ["n_embd", ")"], ["self.", "n_head"], ["self.", "register"], [".", "view"], ["po", "se"], ["。\", ", "{\"dir\": \""], ["en", "ce("], ["best_", "val"], ["k", "dir"], ["max_", "iter"], ["sh", "or"], ["shor", "t_"], ["short_", "ter"], [", tool", "s="], ["]", "}\")"], ["m", "s"], ["te", "(self, "], ["turn", "['"], ["ANTNEST_LLM_API", "_B"], ["ANTNEST_LLM_API_B", "AS"], ["PO", "R"], ["POR", "T"], ["_s", "af"], ["_saf", "e_"], ["_safe_", "path"], ["  ", "#   "], ["0", ","], ["大模型", "研究中台"], ["紧密", "协作"], ["后", "端"], ["并", "发"], ["积", "极"], ["用户", "的"], ["API", " "], ["内", "部"], ["各", "种"], ["新", "技术"], ["可靠", "性"], ["同", "学"], ["深度", "贡献"], ["你", "将"], ["多", "种"], ["大规模", "数据"], ["开发", "和"], ["数据", "分析"], ["架构", "与"], ["3", "5"], ["精", "度"], ["边界", "。"], ["line", " "], ["方向", "。"], ["多样", "性"], ["有", "效"], ["容", "错"], ["重", "复"], ["系统", "研发"], ["海", "量"], ["恢", "复"], ["去", "重"], ["，", "支持"], ["，对", "模型"], ["、", "自动化"], ["筛", "选"], ["与", "模型训练"], ["帮", "助"], ["，", "定位"], ["有强", "烈"], ["，", "愿意"], ["训练", "与"], ["利", "用"], ["API", "、"], ["工程", "能力"], ["深", "刻"], ["发", "表"], ["世界", "的"], ["寻", "找"], ["跟", "进"], ["5.", "有"], ["经验", "者优先。"], ["深度参与", "过"], ["Agent Harness ", "团队"], ["【", "主要"], ["【主要", "职责】"], [" Harness ", "的"], ["基", "准"], ["领域", "具"], ["在 AI ", "辅"], ["在 AI 辅", "助"], ["在 AI 辅助", "下"], ["判断", "力"], ["自己的", "工作"], ["KV", " C"], ["KV C", "ache"], ["、", "Tool"], ["、Tool", " U"], ["、Tool U", "se"], ["ki", "ll"], ["ro", "mp"], ["、", "Harness "], ["1.", "AI"], ["其", "它"], ["超", "乎"], ["超乎", "常"], ["超乎常", "人的"], ["研究员", "深度"], [" Harness ", "产品"], ["高", "校"], ["能", "用"], ["逻辑", "清晰"], ["、", "G"], ["it", "H"], ["itH", "ub"], ["la", "w"], ["严", "谨"], ["同", "步"], ["等", "。"], ["整", "理"], ["an", "u"], ["协", "调"], ["的", "基本"], ["Agent ", "Infra"], ["，", "再"], ["容", "器"], ["超", "大规模"], ["满足", "下"], ["满足下", "列"], ["一", "条"], ["、", "N"], ["，", "建立"], [" AGI ", "时代"], ["走", "向"], ["S", "S"], ["t ", "/ "], ["测试", "开发工程师"], ["重", "新"], ["新", "的"], ["创", "造"], ["AGI", "的"], ["万卡", "集群"], ["拓", "扑"], ["o", "CE"], ["In", "fini"], ["Infini", "B"], ["动", "、"], ["问题", "，"], ["网", "卡"], ["编", "排"], [" ", "D"], ["满足", "于"], ["与", "创新"], ["/", "通信"], ["/通信", "/"], ["最", "后"], ["scen", "d "], ["ile", "L"], ["ileL", "ang"], ["（如", " "], ["E", "P"], ["秒", "级"], ["体验", "。"], ["D", "B"], ["u", "se"], ["我们", "的"], ["我们", "不"], ["机", "会"], ["希望", "你"], ["，而", "不是"], ["问题", "的"], ["你", "在"], ["直", "觉"], ["从", "\""], ["讲", "清楚"], ["参", "考"], ["匹", "配"], ["第", "三"], ["第三", "方"], ["打", "通"], [" ", "\""], ["全", "流程"], ["发", "展"], ["输出", "。"], ["液", "冷"], ["有", "真正"], ["容", "量"], ["机", "柜"], ["，", "按"], ["力", "的"], ["驱", "力"], ["RL ", "环境"], ["之", "为"], ["深度", "的"], ["压", "缩"], ["数据产品经理", "（"], ["与", "优化"], ["Frontier", " "], ["视", "觉"], ["D", "）"], ["F", "O"], ["商", "务"], ["商务", "谈"], ["商务谈", "判"], [" M", "0 "], ["K ", "参数"], ["TinyGPT", " "], ["antNest ", "Harness"], ["9", "/"], ["- ", "M"], ["最", "小"], ["1", "6"], ["artifacts", " "], ["：", "M"], ["h", "t"], ["ht", "t"], ["htt", "p"], ["http", "x"], ["a", "m "], ["nn.L", "ine"], ["nn.Line", "ar"], ["M", "）"], ["注", "意"], ["（", "本"], ["5", "5"], [" ", "3."], ["SA", "F"], ["SAF", "E_"], ["SAFE_", "R"], ["SAFE_R", "OO"], ["SAFE_ROO", "T"], ["shell", " "], ["at", "/"], ["超", "时"], ["函", "数"], ["评测", "与数据"], [" ", "finish "], ["（", "0"], ["## M1+ ", "方案"], ["i", "s"], ["1", "00"], ["（Agent ", "25"], ["为", "奖励"], ["3 ", "号"], ["余弦", "退火"], ["最", "近"], ["M", "ulti-Agent"], [" JSON", " "], ["harness", "_"], ["命中", "率"], ["7", "）"], ["工具调用", "轨迹"], ["shap", "e"], ["拦", "截"], ["一", "一"], ["编", "号"], ["antnest", "/"], ["\"蚁巢", "用自己铸造"], ["\"蚁巢用自己铸造", "自己"], ["工具", "（"], ["## 四", "、"], ["1", "1"], ["_", "M"], ["冲刺报告", "》"], [" v", "2"], ["验证", "集"], ["择优", "保存"], ["动作", "格式"], ["best ", "val"], ["长", "度"], ["ckp", "t_"], ["）", "——"], ["乱", "码"], [" ", "."], ["5.", "8"], ["微", "调"], ["（", "SFT "], ["其", "使命"], ["其使命", "围绕"], [" antNest LLM ", "训练与 "], ["antNest Harness ", "建设展开"], ["_p", "i"], ["评测", "与训练"], [" M", "ulti-Agent"], ["|---|---|", "---|"], ["通过率", " 0."], ["corpus_", "extra"], ["corpus_extra", ".md"], ["动作", "类型"], ["c", "ro"], ["cro", "ss"], ["cross", "_"], ["cross_", "ent"], ["cross_ent", "ro"], ["cross_entro", "py"], ["任务", "池"], ["TASK_POO", "L"], ["严格", "尺子"], [" | ", "综合"], ["1", "25"], ["**", " | **0."], ["\"", "（"], ["P", "SF"], ["入", "口"], [") ", "> "], ["并", "写"], ["test_", "m"], ["锚定", "批"], ["使用即训练", "\""], ["12", "L-384"], ["评测", "扩容"], ["多步", "任务"], ["L", "1 "], ["L1 ", "格式"], ["L5 ", "沙箱"], [" 2 ", "折"], ["2 ", "QA"], ["L", "2 "], [" 0.", "3"], ["L4 ", "参数键"], ["选", "错"], ["_CURRICULU", "M"], [" | 0.167", " | 0."], ["（M", "4 "], ["回", "灌"], ["ASS", "_B"], ["ASS_B", "AR"], ["encode", "_example"], ["（", "同"], ["误", "工具"], ["wi", "se "], ["ad", "v"], ["蚁巢", "计划"], ["1 ", "条"], ["实", "证"], ["`", "："], ["marg", "in "], ["追", "加"], ["(任务, ", "历史, 动作) "], ["拒绝", "晋升"], [" ", "32 个"], ["[", "1]"], [" Crew", "AI "], ["-", "t"], ["3", "（"], ["明", "细"], ["）；", "`"], ["3", ", "], ["--", "corpus "], ["python -m antnest_llm.evolve", " --"], ["逐", "字"], ["线性", "退火"], ["BPE ", "5"], ["BPE 5", "000"], ["5.", "2"], ["参数化", "检索"], ["动作空间", " 4"], ["动作空间 4", " → "], ["ss", "ion"], ["继续", "下一步"], ["_", "ctx"], ["训练", "指标"], ["v", "6"], ["文件", "内容"], ["G", "A"], ["GA", "L_"], ["GAL_", "TOO"], ["GAL_TOO", "LS"], ["8 ", "任务"], ["多轮", "三元组"], ["穿", "透"], ["单", "项"], ["model", " import "], ["model import ", "TinyGPT"], ["BPE", "Tokenizer"], ["self.", "base"], ["s)", "}"], ["_", "of"], ["s()", "}"], ["for ", "line"], ["for line", " in "], ["line", ".strip()"], ["wor", "d"], ["c", " for "], ["@", "stat"], ["@stat", "ic"], ["@static", "method"], [" = [", "], "], ["el", "se"], ["se", "t"], [" is ", "not "], ["best_", "i"], ["Path", "(path"], ["Path(path", ")."], [" = ", "json.loads("], ["i", "to"], [" = ", "0."], ["_", "CL"], ["_CL", "EA"], ["_CLEA", "N"], ["for ", "f in "], ["\\n\"", ".join("], ["() -> ", "str:"], ["parts", ".append("], ["parts.append(", "f\""], ["\\n\"", " + "], [") + ", "\"\\n"], ["bpe", "_"], ["bpe_", "vocab"], ["\\n", "{"], [" / \"", "artifacts"], [" / \"artifacts", "\""], [".", "name"], [".", "split"], ["len(", "ids"], ["ids[", ":"], ["s ", "if "], ["] for ", "i in "], [" = Path", "(__file__).resolve().parent.parent"], ["\"", "```action"], ["S", ")"], ["m", ":"], [" el", "se"], ["k", " in "], ["ids = ", "tok.encode"], ["(f\"", "{"], ["q", "}\\n"], ["temperature", ", "], ["dim=-1", ")"], ["(", "prob"], ["[", "-1]"], ["idx", " = torch."], ["[0]", ".tolist()"], ["\")", ")"], ["）", "\""], ["vocab.json", "\")"], [" = ", "TinyGPT("], ["load_", "st"], ["load_st", "ate_dict"], ["w", "e"], ["\"", "ckpt"], ["\"", "action_pass"], ["\": round(", "sum("], ["\"", "qa_hit"], ["\"", "self_consist"], ["\"", "multi_avg"], ["\"", "multi_pass"], ["\"", "overall"], ["\"n_", "task"], ["\"n_task", "s\": "], [" {", "res['"], ["=", "args."], ["in", "de"], ["), ", "encoding=\"utf-8\")"], ["print", "(\""], ["        ", "        "], ["# M", "6-"], ["I", "ON"], [".st", "artswith(\""], ["[", ": "], ["ex", "ec"], ["be", "t"], ["{", "h.get('"], ["]", " {"], ["expect", "_"], ["统计", "团队交付物"], ["统计团队交付物", "数量"], ["有多", "少"], ["_", "ARGS"], ["\", \"", "c\": \""], ["/workspace/", "antnest_team/outputs"], ["(", "kind"], ["(", "task"], ["antnest_harness", "."], ["\"", "tool"], ["return ", "score"], ["(x", ")"], ["name", "\": "], ["_", "pair"], ["_pair", "s("], ["_p", "er"], ["_per", "_"], ["_per_", "iter"], ["(model", ".parameters()"], ["(model.parameters()", ", "], ["(ART / f\"{", "op}_"], ["em", "b"], ["(", "n_embd, "], ["B", ", "], [", ", "v"], ["user", "|>"], ["<|", "assistant"], ["ex", ".append(("], ["\": ", "[\""], ["：\", \"", "调用"], ["工具：", "\"],"], ["le", "ad"], ["/workspace/antnest/", "artifacts"], ["。\", {\"p\": \"/workspace/antnest/artifacts/", "v4"], ["ch", "o"], ["st", "ar"], [":.", "4"], [":.4", "f}"], ["self.", "stoi"], [".m", "kdir"], [".mkdir", "("], ["exist", "_ok"], ["{", "args."], ["\"\"\"Agent ", "5："], ["role", ", "], ["che", "ma"], ["'", "```action\\n"], ["'```action\\n", "{\"action"], ["'```action\\n{\"action", "\":\""], ["']", "[:"], ["P", "Y"], ["PY", "TH"], ["PYTH", "ON"], [" = Path(\"", "/workspace/antnest/artifacts/"], ["(client", ", "], ["print(f\"", "\\n"], ["ms", "g"], ["llm", "="], [", tools=", "tool"], [".", "kickoff"], ["buil", "t"], ["**蚁巢", "("], [" = ", "NestAgent"], ["ANTNEST_LLM_API_BAS", "E"], ["RE", "PORT"], ["ra", "i"], ["base_", "ur"], ["base_ur", "l"], ["m[\"", "role"], ["antNest LLM ", "已完成"], ["步", "工具调用"], ["步工具调用", "，任务"], ["步工具调用，任务", "结束。"], ["_safe_path", "(p"], ["self.register", "(\""], ["子", "曰"], ["子曰", "："], ["乎", "？"], ["而", "不"], [" ", "#   "], ["\": 0.", "0,"], ["1.", "具备"], ["迁", "移"], ["3.具备", "良好的"], ["工作", "，"], ["数", "千万日活"], ["编程", "语言"], ["强", "制"], ["欢", "迎"], ["2.", "在"], ["大型", "开源"], ["大型开源", "软件"], ["，或", "有"], ["项目", "。"], ["中", "取得"], ["成绩", "。"], ["方向", "，"], ["技术", "栈"], ["架构", "的"], ["i", "pe"], ["相关专业", "，"], ["，", "熟练掌握"], ["深度学习", "研发工程师"], ["编程", "能力"], ["全", "网"], ["聚", "合"], ["场景", "，"], ["，包括", "但不限于"], ["组", "件"], ["吞", "吐"], ["1.", "计算机"], ["/", "C++"], ["2.", "有"], ["或", "数据"], ["策略", "。"], ["流", "水"], ["，对模型", "行为"], ["，对模型行为", "有"], ["token", "s"], ["图", "文"], ["训练", "数据"], ["可", "视化"], ["工具", "，"], ["表", "现"], ["表现", "。"], ["3.", "熟悉"], ["r", "on"], ["CP", "C"], ["文件", "系统"], ["B", " "], ["与", "资源"], ["运", "用"], ["架构", "工程师"], ["及", "时"], ["都", "能"], ["轻", "量"], ["qu", "er"], ["理解", "、"], ["高效", "的"], ["工程", "落地"], ["t ", "等"], ["架构", "、"], ["+", "+ "], ["稀", "疏"], ["U", "DA"], ["加入", " AntNest Harness "], ["加入 AntNest Harness ", "团队"], [" Agent ", "Harness "], ["未", "知"], ["、", "产品"], ["产品", "方向"], ["紧密", "合作"], ["、S", "ubagent"], [" ", "Agent"], ["计算机", "科学"], ["特", "别"], ["候选人", "可"], ["放", "宽"], ["含", "金"], ["含金", "量的"], ["从", " "], ["想", "法"], ["有极", "大的"], ["产品", "，并"], ["融入", "到"], ["生活", "中"], ["生活中", "。"], ["技术", "原理"]]}