{"type": "bpe", "base": [" ", "!", "\"", "#", "%", "&", "'", "(", ")", "*", "+", ",", "-", ".", "/", "0", "1", "2", "3", "4", "5", "6", "7", "8", "9", ":", ";", "<", "=", ">", "?", "@", "A", "B", "C", "D", "E", "F", "G", "H", "I", "J", "K", "L", "M", "N", "O", "P", "Q", "R", "S", "T", "U", "V", "W", "X", "Y", "[", "\\", "]", "_", "`", "a", "b", "c", "d", "e", "f", "g", "h", "i", "j", "k", "l", "m", "n", "o", "p", "q", "r", "s", "t", "u", "v", "w", "x", "y", "z", "{", "|", "}", "~", "±", "·", "×", "÷", "α", "β", "ε", "λ", "π", "—", "‖", "“", "”", "…", "→", "∈", "−", "≈", "≠", "≥", "①", "②", "③", "④", "─", "│", "└", "├", "►", "▼", "✅", "✓", "✔", "✗", "、", "。", "《", "》", "「", "」", "『", "』", "【", "】", "一", "七", "万", "三", "上", "下", "不", "与", "专", "且", "世", "业", "丛", "丢", "两", "严", "个", "中", "丰", "串", "临", "为", "主", "举", "久", "么", "义", "之", "乌", "乎", "乐", "九", "也", "习", "书", "乱", "了", "予", "争", "事", "二", "于", "云", "互", "五", "些", "亡", "交", "亦", "产", "享", "亲", "人", "亿", "什", "仅", "今", "仍", "从", "仓", "他", "付", "代", "令", "以", "们", "仰", "件", "价", "任", "份", "仿", "企", "众", "优", "伙", "会", "传", "估", "伴", "伸", "似", "但", "位", "低", "住", "体", "何", "余", "作", "你", "佳", "使", "例", "供", "依", "侧", "促", "保", "信", "修", "倍", "候", "借", "值", "倾", "假", "偏", "做", "停", "健", "储", "像", "允", "元", "充", "兆", "先", "光", "克", "免", "兜", "入", "全", "八", "公", "六", "共", "关", "兴", "兵", "其", "具", "典", "养", "兼", "内", "册", "再", "冒", "冗", "写", "冲", "决", "况", "冷", "净", "准", "减", "几", "凭", "出", "击", "函", "刀", "分", "切", "刊", "划", "列", "则", "创", "初", "删", "判", "利", "别", "到", "制", "刷", "刺", "刻", "前", "剔", "剪", "副", "力", "办", "功", "加", "务", "劣", "动", "助", "励", "劳", "势", "勤", "包", "化", "匹", "区", "医", "十", "千", "升", "半", "协", "卓", "单", "占", "卡", "印", "危", "即", "卷", "厂", "历", "压", "厚", "原", "去", "参", "又", "及", "友", "双", "反", "发", "取", "受", "变", "叠", "口", "句", "另", "只", "召", "可", "台", "史", "号", "司", "各", "合", "同", "名", "后", "吐", "向", "君", "吞", "否", "吧", "含", "听", "启", "吸", "吾", "呈", "告", "员", "周", "味", "命", "和", "品", "哈", "响", "哪", "唯", "商", "善", "喧", "喻", "嗅", "器", "噪", "嚣", "四", "回", "因", "团", "园", "围", "固", "国", "图", "土", "在", "地", "场", "址", "均", "坏", "坑", "块", "坚", "垂", "型", "垒", "域", "培", "基", "堆", "塌", "塑", "塞", "填", "境", "墙", "增", "墨", "壁", "声", "壳", "处", "备", "复", "外", "多", "够", "大", "天", "央", "失", "头", "夹", "奇", "奏", "契", "奖", "套", "好", "如", "妙", "妥", "始", "威", "子", "孕", "字", "存", "孙", "季", "学", "它", "守", "安", "完", "宏", "官", "定", "实", "审", "客", "室", "家", "容", "宽", "宿", "密", "富", "察", "寸", "对", "寻", "导", "射", "将", "小", "少", "尖", "尚", "尝", "就", "尺", "尽", "尾", "局", "层", "展", "属", "岗", "崩", "嵌", "巢", "工", "巨", "差", "己", "已", "市", "布", "师", "希", "带", "帧", "帮", "常", "幅", "干", "平", "年", "并", "广", "序", "库", "应", "底", "度", "座", "康", "延", "建", "开", "异", "弃", "式", "引", "张", "弦", "弱", "弹", "强", "归", "当", "录", "形", "影", "彻", "彼", "往", "征", "径", "待", "很", "律", "得", "循", "微", "德", "徼", "心", "必", "忆", "志", "忘", "忠", "快", "念", "态", "怎", "怕", "思", "急", "性", "总", "恒", "恢", "息", "恶", "悉", "情", "惯", "惰", "想", "愈", "意", "感", "愠", "愿", "慢", "慧", "懂", "戏", "成", "我", "或", "战", "截", "户", "房", "所", "手", "才", "扎", "扑", "打", "托", "执", "扩", "扫", "扮", "批", "找", "承", "技", "把", "抓", "投", "抖", "折", "抢", "护", "报", "披", "抱", "抵", "抽", "担", "拆", "拉", "拒", "拓", "拔", "招", "拟", "拥", "拦", "择", "括", "拷", "拼", "拿", "持", "指", "按", "挑", "挖", "挥", "损", "换", "据", "捷", "掉", "掌", "排", "掘", "探", "接", "控", "推", "掩", "措", "描", "提", "插", "握", "揭", "搀", "搜", "搭", "摘", "摩", "撑", "撬", "播", "撰", "擅", "操", "擎", "擦", "攀", "支", "收", "改", "攻", "放", "政", "故", "效", "敏", "教", "敛", "敢", "散", "敬", "数", "整", "文", "斗", "料", "斥", "断", "新", "方", "施", "旅", "旋", "无", "既", "日", "旧", "早", "时", "明", "易", "映", "是", "显", "晋", "景", "晰", "智", "暂", "暖", "暴", "曰", "曲", "更", "曾", "替", "最", "月", "有", "朋", "服", "望", "期", "木", "未", "末", "本", "术", "机", "杂", "权", "材", "束", "条", "来", "松", "板", "极", "构", "析", "果", "架", "某", "染", "柜", "查", "栅", "标", "栈", "栏", "校", "样", "核", "根", "格", "框", "案", "桌", "档", "桥", "桶", "梁", "梯", "检", "棒", "棘", "椀", "楚", "概", "榜", "榨", "槛", "模", "次", "欢", "欲", "款", "歌", "止", "正", "此", "步", "死", "殆", "残", "段", "母", "每", "比", "毫", "气", "氛", "水", "永", "求", "汇", "池", "污", "沉", "沙", "沟", "没", "治", "沿", "法", "泛", "波", "注", "洀", "洁", "洗", "洞", "活", "派", "流", "测", "浓", "海", "浸", "消", "涉", "涌", "液", "涵", "淀", "淆", "深", "混", "清", "渗", "温", "渲", "游", "湖", "湿", "溃", "源", "溢", "溯", "滚", "满", "漂", "漏", "演", "潜", "灌", "火", "灰", "灵", "灾", "炸", "点", "炼", "烈", "烟", "热", "焉", "焦", "然", "照", "熟", "燃", "爀", "爆", "爬", "爱", "片", "版", "牌", "物", "牵", "特", "犯", "状", "独", "献", "玄", "率", "玩", "环", "现", "班", "球", "理", "琐", "瓦", "瓶", "生", "用", "由", "申", "电", "画", "畅", "界", "畏", "留", "略", "疆", "疏", "症", "痕", "痛", "登", "白", "百", "的", "益", "监", "盒", "盖", "盘", "目", "盲", "直", "相", "省", "看", "真", "眼", "着", "督", "瞻", "矣", "知", "矩", "短", "石", "矿", "码", "研", "破", "础", "硬", "确", "碎", "碑", "磁", "磨", "示", "社", "祉", "神", "票", "禁", "福", "离", "秀", "种", "科", "秒", "秦", "秩", "积", "称", "移", "稀", "程", "税", "稠", "稳", "究", "空", "穿", "突", "窗", "立", "站", "竞", "章", "端", "笔", "符", "第", "等", "筑", "答", "策", "筛", "筹", "签", "简", "算", "管", "箱", "籍", "类", "粘", "精", "糊", "系", "素", "索", "紧", "累", "繁", "纠", "红", "约", "级", "纪", "纯", "纳", "纸", "纹", "纽", "线", "练", "组", "细", "织", "终", "经", "结", "绕", "给", "络", "绝", "统", "继", "绩", "绪", "续", "维", "综", "绿", "缀", "缓", "编", "缝", "缩", "缺", "网", "罔", "罕", "置", "署", "美", "群", "考", "者", "而", "耕", "耗", "耦", "聊", "职", "联", "聘", "聚", "育", "背", "胜", "能", "脑", "脚", "脱", "腻", "自", "至", "致", "舍", "航", "般", "良", "色", "艺", "节", "芒", "芯", "花", "若", "英", "范", "荆", "荐", "荣", "获", "营", "落", "著", "蒸", "蓝", "薪", "虚", "虫", "蚁", "蚂", "融", "血", "行", "衡", "补", "表", "衰", "衷", "被", "裁", "裂", "装", "裕", "裹", "要", "覆", "见", "观", "规", "视", "览", "觉", "角", "解", "触", "言", "计", "订", "认", "让", "训", "议", "记", "讲", "许", "论", "设", "访", "证", "评", "识", "诉", "诊", "词", "译", "试", "诗", "诚", "话", "诡", "询", "该", "语", "误", "说", "诵", "请", "诺", "读", "课", "调", "谈", "谋", "谓", "谢", "谨", "象", "貌", "贝", "负", "贡", "财", "责", "败", "账", "货", "质", "贪", "购", "贯", "贴", "费", "资", "赋", "赖", "赛", "走", "起", "超", "越", "趋", "趟", "趣", "足", "跃", "跑", "距", "跟", "跨", "路", "跳", "践", "踏", "踩", "踪", "蹊", "身", "轨", "转", "轮", "软", "轻", "载", "较", "辄", "辅", "辑", "输", "辞", "辟", "辨", "边", "达", "迁", "过", "迈", "迎", "运", "近", "返", "还", "这", "进", "远", "连", "迟", "迭", "述", "迹", "追", "退", "送", "适", "逃", "选", "透", "逐", "递", "逗", "通", "速", "造", "逸", "逻", "逼", "遇", "道", "遗", "遵", "避", "邃", "那", "邻", "部", "都", "配", "酬", "醒", "采", "释", "里", "重", "野", "量", "金", "针", "钟", "钮", "钳", "钻", "铁", "银", "铸", "铺", "链", "销", "锁", "锋", "锐", "错", "锚", "键", "镜", "长", "门", "闭", "问", "闲", "间", "阈", "阔", "队", "防", "阵", "阶", "附", "际", "降", "限", "院", "除", "险", "陪", "陷", "随", "隐", "隔", "障", "难", "雅", "集", "雏", "零", "需", "露", "静", "非", "靠", "面", "革", "页", "顶", "项", "顺", "须", "预", "领", "颈", "频", "题", "额", "颠", "风", "馈", "馏", "首", "驭", "驱", "驻", "驾", "验", "骤", "骨", "骼", "高", "魂", "鲁", "鲜", "黑", "默", "鼓", "齐", "！", "（", "）", "，", "：", "；", "＝", "？", "～"], "merges": [[",", " "], ["n", "t"], ["s", "t"], ["o", "r"], ["a", "r"], ["=", " "], ["i", "n"], ["s", "e"], [" ", "= "], ["r", "e"], ["g", "e"], ["o", "n"], ["d", "e"], [":", " "], ["e", "n"], ["e", "st"], ["数", "据"], ["t", "o"], ["s", "s"], ["m", "e"], ["a", "t"], ["ge", "nt"], ["-", " "], ["l", "o"], ["c", "h"], ["c", "t"], ["|", " "], ["e", "r"], ["\"", ")"], ["─", "─"], ["A", "gent"], ["#", " "], ["r", "o"], ["f", " "], ["\"", ", "], ["模", "型"], ["\"", "\""], ["m", "p"], ["(", "\""], ["t", " "], ["Agent", " "], ["(", ")"], ["a", "d"], ["训", "练"], ["a", "nt"], ["-", "-"], ["a", "n"], [" ", "| "], ["se", "l"], ["sel", "f"], ["+", " "], ["n", "e"], ["/", " "], ["\"", ": "], ["t", "e"], ["a", "l"], ["a", "ct"], ["o", "l"], [" ", "/ "], ["`", "`"], ["o", "de"], ["ar", "g"], ["N", "est"], ["*", "*"], ["2", "."], ["1", "."], ["c", "k"], ["t", "i"], ["l", "e"], ["s", "."], ["l", "i"], ["self", "."], ["团", "队"], ["能", "力"], [" ", "+ "], ["ar", "ne"], ["arne", "ss"], [" ", "i"], ["u", "r"], ["产", "品"], ["0", "."], ["工", "具"], ["3", "."], ["ur", "n"], ["系", "统"], ["t", "urn"], ["A", "I"], ["工", "程"], ["to", "k"], ["in", " "], ["t", "r"], [" ", " "], ["u", "t"], ["方", "向"], ["Nest", " "], ["H", "arness"], ["p", "a"], ["to", "ol"], ["re", "turn"], ["L", "L"], ["\"\"", "\""], ["f", "or"], ["f", "\""], ["or", "ch"], ["return", " "], ["\", ", "\""], ["r", "i"], ["j", "s"], ["──", "──"], ["c", "o"], ["i", "f "], ["设", "计"], ["t", "orch"], ["i", "on"], ["#", "# "], ["LL", "M"], ["s", " "], ["→", " "], ["Harness", " "], ["e", "x"], [".", "p"], ["c", "e"], ["m", "ode"], ["mode", "l"], ["in", "g"], ["mp", "or"], ["mpor", "t "], ["a", "p"], ["js", "on"], ["de", "f "], ["4", "."], ["i", "t"], ["任", "务"], ["l", "l"], ["i", "d"], ["m", "a"], ["at", "h"], ["n", "_"], ["ant", "Nest "], ["i", "z"], ["ant", "n"], ["antn", "est"], ["\"", "]"], ["s", "c"], [")", " "], ["torch", "."], ["研", "究"], ["m", " "], ["u", "l"], ["评", "测"], ["[", "\""], ["_", "_"], ["\\", "n"], ["{", "\""], ["经", "验"], ["p", "ro"], ["f", "i"], ["p", "o"], ["0", " "], [" ", "→ "], ["``", "`"], ["开", "发"], ["a", "me"], ["l", "en"], ["工", "作"], ["p", "e"], ["act", "ion"], ["AI", " "], ["i", "st"], ["s", " = "], [" ", "in "], ["e", "nt"], ["职", "位"], ["for", " "], ["负", "责"], ["v", "al"], ["技", "术"], ["真", "实"], ["tr", "a"], [")", ":"], ["）", "，"], ["h", "e"], ["优", "化"], ["x", "t"], ["ad", "_"], [")", ","], ["=", "\""], ["d", "("], ["on", "e"], ["n", "ame"], ["d", "i"], ["\": ", "\""], ["工程", "师"], ["a", "se"], ["3", " "], [">", " "], ["我", "们"], ["方", "案"], ["s", ", "], [" ", "A"], ["0", "0"], ["岗", "位"], ["质", "量"], [" ", "Agent "], ["or", "y"], ["t", "h"], ["d", "ing"], ["w", "or"], ["e", "p"], ["深", "度"], ["（", "Agent "], ["k", "s"], ["N", "one"], ["算", "法"], ["len", "("], ["arg", "s."], ["in", "e"], ["l", "a"], ["u", "me"], [")", ")"], ["用", "户"], ["要", "求"], ["）", "。"], ["5", "."], ["o", "p"], ["2", " "], ["te", "xt"], ["st", "r"], ["核", "心"], ["学", "习"], ["网", "络"], ["co", "ding"], ["d", "_"], ["【", "岗位"], ["性", "能"], ["理", "解"], ["4", " "], ["li", "st"], ["f", "ro"], ["fro", "m "], ["S", "F"], ["lo", "ss"], ["ar", "ti"], ["arti", "f"], ["artif", "act"], ["m", "d"], ["lo", "g"], [" i", "mport "], ["s", "()"], ["ge", "t"], ["问", "题"], ["P", "U"], ["pa", "ce"], ["wor", "ks"], ["p", "y"], ["-", "8"], ["\"", "}"], ["n", "o"], ["持", "续"], ["s", "/"], ["works", "pace"], ["antnest", "_"], ["re", "w"], [" ", "-"], ["ma", "x"], ["ul", "t"], ["架", "构"], ["执", "行"], ["i", "nt"], ["T", " "], ["/", "workspace"], ["_", "s"], ["ut", "f"], ["utf", "-8"], ["使", "用"], ["预", "训练"], ["熟", "悉"], ["LLM", " "], ["e", "m"], ["领", "域"], ["th", "on"], ["tok", "en"], [" ", "C"], ["lo", "ck"], ["动", "作"], ["具", "备"], ["s", "h"], ["-", "1"], ["ll", "m"], [" ", "|"], ["自", "动"], ["p", "en"], ["b", "lock"], ["o", "ut"], ["A", "R"], ["。", "\", "], ["p", "ar"], ["g", "r"], ["pro", "mp"], ["p", "ath"], ["────", "────"], ["交", "付"], ["规", "模"], ["完", "成"], ["—", "—"], ["st", "ep"], ["iz", "e"], ["b", "est"], [", ", "\""], ["/workspace", "/"], [" ", "AI "], ["相", "关"], ["通", "过"], ["a", "s"], ["G", "I"], ["5", " "], ["管", "理"], ["服", "务"], ["经验", "。"], ["信", "息"], ["语", "料"], ["an", "d"], ["文", "件"], ["ro", "u"], ["报", "告"], ["li", "ent"], ["t", "_"], ["s", "["], [".", "get"], [" ", "等"], [" ", "1"], ["iz", "er"], [".p", "y"], ["## ", "M"], ["采", "样"], ["i", "mport "], ["(", "f\""], ["职", "责"], ["基", "础"], [" ", "Harness "], ["沙", "箱"], ["硬", "件"], ["u", "e"], ["|", "--"], ["s", ")"], ["ume", "nt"], ["研究", "员"], ["要求", "】"], ["l", "ine"], ["模", "态"], [" ", "R"], [" ", "M"], ["测", "试"], ["b", "ase"], [" ", "antNest "], ["or", "e"], ["P", "ath"], ["]", ", "], ["no", "t "], ["\"", ","], ["职责", "】"], ["多", "模态"], ["y", "pe"], ["c", "ode"], ["  ", "  "], ["artifact", "s/"], ["迭", "代"], ["场", "景"], ["in", "i"], ["o", "k"], [".", "md"], ["s", "("], ["t", "ype"], ["s", "u"], ["ne", "w"], ["c", "f"], ["f", "a"], ["智", "能"], ["分", "析"], ["o", "c"], ["fi", "le"], ["c", "or"], ["from ", "."], ["b", "d"], [".", "ad"], ["，", "能"], ["类", "型"], ["ch", "e"], ["me", "m"], ["p", "u"], ["P", "O"], ["**", "："], ["w", "ri"], ["wri", "te"], ["de", "fa"], ["defa", "ult"], ["建", "设"], ["探", "索"], ["大", "规模"], ["搜", "索"], ["，", "对"], ["实", "现"], ["mp", "le"], ["sc", "ore"], ["=", "= "], ["AR", "T"], [" ", "{"], ["大", "模型"], ["计", "算"], ["运", "维"], ["一", "个"], ["p", "t"], ["a", "b"], [".", "json"], ["SF", "T "], ["\"", ":"], ["re", "s"], [".p", "ar"], ["使", "命"], ["深", "入"], [" ", "P"], ["v", "i"], ["环", "境"], ["轨", "迹"], ["s", "f"], ["cor", "pu"], ["pa", "ss"], ["type", "="], ["(", "model"], ["id", "x"], ["p", "ri"], ["pri", "nt"], ["ap", ".ad"], ["ap.ad", "d_"], ["ap.add_", "arg"], ["ap.add_arg", "ument"], ["ap.add_argument", "(\""], ["ap.add_argument(\"", "--"], ["{\"", "p"], ["描", "述"], ["结", "构"], ["体", "系"], ["存", "储"], ["进", "化"], ["v", "e"], ["s", "_"], ["e", "val"], ["(", "self"], [") ", "-"], ["json", "."], ["lo", "ad_"], ["p", "_"], ["f\"", "{"], ["职位", "描述"], ["参", "与"], ["落", "地"], ["规", "划"], ["推", "理"], ["f", "ini"], ["人", "："], ["词", "表"], ["py", "thon"], [" ", "0."], ["T", "r"], ["_s", "ize"], [") -", "> "], ["text", "("], ["en", "coding"], ["encoding", "=\""], ["encoding=\"", "utf-8"], ["encoding=\"utf-8", "\")"], ["cf", "g"], ["/workspace/", "antnest"], ["(", "1"], ["ul", "ti"], ["集", "群"], ["奖", "励"], ["al", "l"], ["v", "oc"], ["voc", "ab"], ["re", "ad_"], [".", "st"], [".get", "(\""], ["max", "_"], ["协", "作"], ["研", "发"], ["解", "决"], ["参", "数"], ["a", "gent"], ["中", "心"], ["- ", "负责"], ["- 负责", "人："], ["write", "_"], [": ", "str"], ["ap", "pen"], ["appen", "d("], [" = ", "torch."], ["业", "务"], ["项", "目"], ["默", "认"], ["框", "架"], ["闭", "环"], ["gr", "po"], ["log", "it"], [" i", "f "], ["t", "as"], ["团队", "使命"], ["构", "建"], ["平", "台"], ["加", "分"], ["段", "落"], ["优", "先"], ["策", "略"], ["经", "理"], ["定", "义"], ["c", "on"], ["or", " "], ["co", "nt"], ["'", "]"], ["ti", "me"], ["\"}", "),"], ["团队使命", "】"], ["维", "护"], ["处", "理"], ["职位", "信息"], ["职", "能"], ["职能", "类型"], ["默认", "段落"], ["默认段落", "字"], ["默认段落字", "体"], ["tra", "in"], ["的", " "], ["数据", "中心"], ["e", "d"], ["）", "："], ["a", "mple"], ["token", "izer"], ["fini", "sh"], ["p", "l"], ["(self", ", "], ["promp", "t"], ["ART", " / "], ["{\"p", "\": \""], ["【", "团队使命】"], ["边", "界"], ["全", "职"], ["代", "码"], ["验", "证"], ["自动", "化"], ["A", " "], ["产品", "经理"], ["mem", "ory"], ["ck", "pt"], ["b", "u"], ["_", "di"], ["i", "l"], ["r", "an"], [" ", "== "], ["cfg", "[\""], ["print", "(f\""], ["/workspace/antnest", "/"], ["】", "："], ["开", "源"], ["能力", "。"], ["设", "施"], ["，", "不"], ["体", "验"], ["A", "GI"], ["对", "话"], ["n", "n"], ["字", "符"], ["e", "l"], ["block", "_size"], ["s", "w"], ["n_", "em"], ["n_em", "bd"], ["he", "ad"], ["l", "p"], ["提", "升"], ["【岗位", "要求】"], ["需", "求"], ["结", "果"], ["antnest_", "llm"], ["l", "r"], ["0", "]"], [" ", "for "], ["0", ", "], [")", ", "], ["}", "\\n"], ["(model", ", "], ["ART / ", "f\"{"], ["ma", "in"], ["保", "障"], ["，", "并"], ["分", "布"], ["编", "程"], ["定", "位"], ["独", "立"], ["G", "PU"], ["采", "购"], ["G", "R"], ["2", "8"], [" ", "**"], ["h", "arness"], ["|--", "-"], ["tra", "j"], ["a", "ge"], ["at", "e"], ["+", "= "], ["Tr", "ue"], ["专", "业"], ["L", " "], ["基础", "设施"], ["每", "一"], ["【", "工作"], ["D", "M"], ["6", "."], ["s", "or"], ["he", "ll"], ["G", "P"], ["GR", "PO"], ["2", "5"], ["1", " "], ["bu", "il"], ["vi", "e"], ["vie", "w"], [")", "}"], ["if ", "not "], ["[", "]"], [")", "."], ["s", "\": "], ["\"]", ", "], ["tok", ", "], ["max_", "new"], ["h", "ist"], ["稳", "定"], ["驱", "动"], ["分布", "式"], ["优", "秀"], ["的", "数据"], ["知", "识"], ["包", "括"], ["d", "u"], ["自", "己"], ["沟", "通"], ["评", "估"], ["o", "f"], ["建", "立"], ["A", "S"], ["路", "径"], ["t", "er"], ["（", "M"], ["nn", "."], ["C", "lient"], ["rou", "n"], ["lo", "ad"], ["el", "se"], ["=", "True"], ["tool", "\", \""], ["}", "\")"], ["[", ":"], ["软", "件"], ["高", "效"], ["共", "同"], ["、", "可"], ["前", "沿"], ["覆", "盖"], ["运", "行"], ["【工作", "职责】"], [" A", "nt"], ["一", "致"], ["目", "标"], ["a", "m"], ["che", "ck"], ["ch", "ar"], ["pro", "b"], ["roun", "d("], ["tas", "k"], ["[", "'"], ["/workspace/antnest/", "artifacts/"], ["me", "ss"], ["mess", "age"], ["。", "我们"], ["推", "动"], ["熟", "练"], [" ", "的"], ["提", "供"], ["以", "上"], ["统", "计"], ["格", "式"], ["，", "有"], ["范", "式"], ["ch", "at"], ["通", "信"], ["u", "b"], ["R", "e"], ["check", "po"], ["checkpo", "int"], ["修", "复"], ["文", "本"], ["i", "c"], ["## M", "0 "], ["t", "est"], ["1", "+ "], ["3", "2 "], ["2", "4"], ["g", "ist"], ["```", "action"], ["O", "N"], ["/", "1"], ["an", "ch"], ["0", ")"], [".", "s"], ["=", "1"], ["p", "re"], ["}", "_"], ["n_", "head"], ["\", ", "type="], [", ", "default"], ["ro", "le"], ["，", "持续"], ["【", "加分"], ["【加分", "项"], ["【加分项", "】"], ["、", "C"], ["了", "解"], ["判", "断"], ["高", "性能"], ["7", "."], ["L", "o"], ["Lo", "op"], ["o", "ol"], ["r", "a"], ["D", "S"], ["u", "n"], ["对", "齐"], ["（Agent ", "1"], ["## M", "1+ "], ["s", "hell"], ["_", "con"], ["v", "er"], ["al", "se"], ["```", "python"], ["self.", "_"], ["k", "e"], ["_", "a"], [" == ", "\""], ["er", "at"], ["pre", "fi"], ["prefi", "x"], ["(", "ART / f\"{"], ["se", "r"], [":", "."], ["f", "}"], ["。\", ", "{\"p\": \""], ["c", "lient"], ["调", "度"], ["与", "数据"], ["复", "杂"], ["安", "全"], ["ad", "c"], ["adc", "ase"], ["长", "期"], ["可", "能"], ["调", "用"], ["v", "2"], ["标", "准"], ["对", "比"], ["T", "in"], ["Tin", "y"], ["Tiny", "GP"], ["O", "O"], ["ct", "x"], ["w", "ar"], ["write_", "file"], ["C", "rew"], ["目", "录"], ["sf", "t"], [" | ", "0."], ["anch", "or"], ["en", "code"], ["it", "er"], ["# ", "-"], ["# -", "*"], ["# -*", "- "], ["# -*- ", "coding"], ["# -*- coding", ": "], ["# -*- coding: ", "utf-8"], ["# -*- coding: utf-8", " -"], ["# -*- coding: utf-8 -", "*"], ["# -*- coding: utf-8 -*", "-"], ["me", "r"], ["base", "_"], ["F", "alse"], ["g", ")"], ["(\"", "tool\", \""], ["m", "("], [": ", "{"], ["产品", "的"], ["实", "践"], ["资", "源"], ["回", "归"], ["指", "标"], ["内", "容"], ["流", "程"], [" A", "GI"], ["记", "忆"], ["热", "情"], ["、", "M"], ["需", "要"], ["M", " "], ["算", "力"], ["b", "at"], ["bat", "ch"], ["antnest_", "harness"], ["u", "p"], ["list", "_di"], ["list_di", "r"], ["\"\"\"", "Agent "], ["best", "_"], [" ", "or "], ["=", "False"], [":", "]"], ["(model, ", "tok, "], ["model", "."], [", default", "="], ["tool", "s"], ["，", "让"], ["招", "聘"], ["P", "I"], ["计算", "机"], ["y", "thon"], ["世", "界"], ["清", "洗"], ["模型", "训练"], ["关", "键"], ["原", "理"], ["通", "用"], ["，", "而"], [" Ant", "Nest "], ["，", "从"], ["直", "接"], ["T", "ool"], ["《", "1"], ["p", "er"], ["u", "re"], ["后", "训练"], ["蚁", "巢"], ["交付", "物"], ["6", " "], ["re", "view"], ["ri", "p"], ["corpu", "s_"], ["*", " "], ["pa", "i"], ["pai", "r"], ["────────", "────────"], ["\")", ":"], ["[", "0]"], ["par", "t"], ["tok", "."], ["\")", "."], ["。", "\"\"\""], ["par", "se"], ["hist", "ory"], ["中", "的"], ["性", "。"], [" ", "S"], ["模型", "的"], ["，", "熟悉"], [" ", "LLM "], ["与", " "], ["O", "pen"], ["e", "c"], ["配", "置"], ["过", "程"], ["交", "互"], ["路", "由"], ["and", " "], ["d", "at"], ["什", "么"], ["f", "lo"], ["promp", "t "], ["P", "E"], ["ol", "ve"], ["生", "成"], ["建", "议"], ["s.", "json"], ["通过", "率"], ["|--", "--"], ["c", "rew"], ["m", "o"], ["re", "p"], ["m", "ulti"], ["- ", "**"], ["LLM", "Client"], ["|---", "|---"], ["me", "an"], ["锚", "定"], ["pass", "@"], ["E", "A"], ["ex", "pe"], ["expe", "ct"], ["c", "la"], ["for", " i"], ["max", "("], [" i", "s "], ["str", ":"], ["read_", "text("], ["read_text(", "encoding=\"utf-8\")"], [" = ", "Path"], ["an", "sw"], ["answ", "er"], [".par", "ent"], ["it", "h"], ["_", "score"], ["\": ", "round("], ["main", "()"], ["语", "言"], ["，", "为"], ["好", "的"], ["/", "算法"], ["1", "5"], ["【岗位", "类"], ["【岗位类", "别"], ["【岗位类别", "】："], ["，", "具备"], ["方向", "、"], ["优秀", "的"], ["方", "式"], ["上", "下"], ["记", "录"], ["响", "应"], ["时", "代"], ["算", "子"], ["rou", "p"], ["产", "出"], ["l", "on"], ["维", "度"], ["方案", "》"], ["ckpt", ".p"], ["B", "PE"], ["ex", "ist"], ["- ", "1"], ["_", "loss"], ["__", "in"], ["__in", "it"], ["__init", "__"], [".", "append("], ["du", "mp"], ["sc", "i"], ["sci", "i"], ["flo", "at"], [" ", "else"], ["arg", "s"], [", ", "4"], ["he", "lp"], ["help", "=\""], ["\", type=", "int"], ["ge", "n"], ["re", "c"], ["。\", ", "(\"tool\", \""], ["\")", "),"], ["实", "验"], ["扩", "展"], ["扎", "实"], ["不", "同"], ["、", "网络"], ["可", "靠"], ["，", "或"], ["发", "现"], ["链", "路"], ["，", "包括"], ["可", "用"], ["SF", "T"], ["，", "在"], ["y", " "], ["b", "adcase"], ["管", "线"], ["Agent ", "Harness "], ["ulti", "-"], ["科", "学"], ["机", "制"], ["k", "i"], ["前", "端"], ["g", "roup"], [" ", "I"], ["成", "功"], ["o", "ck"], ["D", " "], ["本", "地"], ["不", "是"], ["en", "sor"], ["输", "出"], ["主", "场"], ["de", "r"], ["i", "te"], ["评测", "集"], [" ", "2"], [" ", "<"], ["antnest_llm", "/"], ["J", "S"], ["JS", "ON"], ["回", "流"], ["新", "增"], ["se", "t"], ["from ", "path"], ["from path", "li"], ["from pathli", "b"], ["from pathlib", " import "], ["from pathlib import ", "Path"], ["cla", "ss"], ["mer", "ge"], ["s.", "append("], ["te", "mp"], ["temp", "erat"], ["temperat", "ure"], ["fi", "g"], ["p", "f"], ["pf", "x"], ["创", "新"], ["，", "你"], ["效", "率"], ["支", "持"], ["快", "速"], ["应", "用"], ["下", "一"], ["设计", "、"], ["深度", "学习"], ["预训练", "数据"], ["反", "馈"], [" AGI", " "], ["真", "正"], ["清", "晰"], ["b", "o"], ["进", "行"], ["n", "g"], ["办", "公"], ["故", "障"], ["D", "e"], [" ", "L"], ["接", "入"], ["in", "d"], [" ", "3"], ["数据", "产品经理"], ["《", "2"], ["情", "感"], ["）", "研究员"], ["0", "0 "], ["外", "部"], ["（", "含"], ["_", "C"], ["r", "or"], ["TinyGP", "T"], ["冲", "刺"], ["`", " "], [")", " + "], ["ite", "m"], ["ke", "y"], [" ", "+= "], ["in", "("], ["json.", "dump"], ["json.dump", "s("], ["en", "su"], ["ensu", "re"], ["ensure", "_a"], ["ensure_a", "scii"], ["ensure_ascii", "=False"], ["o", "i"], [" -", "> "], ["t", "ensor"], ["tensor", "("], ["model", "_con"], ["model_con", "fig"], ["{\"", "action"], ["\", type=int", ", default="], ["c", "md"], ["p_", "len"], [", ", "args."], ["\":", "\""], ["观", "测"], ["系统", "的"], ["及", "以上"], ["【岗位类别】：", "全职"], ["优先", "。"], ["采", "集"], ["合", "规"], ["工作", "。"], ["系统", "性"], ["合", "作"], ["上下", "文"], ["方", "法"], ["em", "ory"], ["A", "nt"], ["公", "司"], ["一致", "性"], [" ", "N"], ["人", "才"], ["协", "议"], ["保", "存"], ["基", "线"], ["资", "产"], ["9", " "], ["ex", "tr"], ["extr", "act"], ["extract", "ed"], ["结", "束"], ["T", "ok"], ["Tok", "en"], ["Token", "izer"], ["di", "ct"], ["|----", "--"], ["GRPO", " "], [" ", "SFT "], ["ran", "k"], [" | ", "✅"], [" | ✅", " | "], ["措", "辞"], ["Q", "A "], ["# ", "──"], [": str", ", "], [": ", "int"], ["ran", "ge"], ["[", "i"], ["None", ":"], ["id", "s"], [": ", "list"], [") -> ", "str:"], ["json.", "load"], ["json.load", "s("], [" / ", "\""], ["d", "type="], ["torch.", "lon"], ["res", "ult"], ["model_config", ".json"], ["\"], ", "cfg[\""], ["y", "er"], ["su", "m("], ["q", ", "], ["。\", {\"p\": \"", "/workspace/antnest/artifacts/"], ["深度", "参与"], ["招聘", "方向"], ["【岗位", "职责】"], ["，能", "够"], ["的", "技术"], ["至", "少"], ["个", "人"], ["良", "好的"], ["全", "栈"], ["0.", "0"], ["生", "产"], ["角", "色"], ["1.", "负责"], ["针", "对"], ["调", "优"], ["以", "及"], ["愿", "意"], ["训练", "与"], ["操", "作"], ["返", "回"], ["成", "本"], ["问题", "。"], ["、", "S"], ["DM", "A "], ["自己", "的"], ["ine", "er"], ["ineer", "ing"], ["第", "一"], ["风", "险"], ["运", "营"], ["编", "译"], ["选", "择"], ["门", "禁"], ["ct", "r"], ["C", "h"], ["e", "v"], ["antNest ", "LLM "], [" ", "×"], ["vocab", ".json"], ["s", "ample"], ["antnest_harness", "/"], ["Nest", "Agent"], ["read_", "file"], ["pl", "an"], ["E", "r"], ["Er", "ror"], ["out", "p"], ["outp", "ut"], ["Nest", "LLMClient"], ["0.", "2"], ["严", "格"], ["s", "se"], ["T", "OO"], ["TOO", "L"], ["ex", "ample"], ["s = ", "["], ["ate", "("], [" in ", "range"], ["s", ":"], ["）。", "\"\"\""], ["cont", "in"], ["contin", "ue"], ["dtype=", "torch.lon"], ["id", "s["], ["a", "ck"], ["arg", "parse"], [" ", "a"], ["_", "gr"], ["di", "m"], ["  ", "# "], ["st", "_"], ["o", "ver"], ["over", "all"], ["sf", "t_"], ["(", "x"], ["招聘方向", "【"], ["可", "观测"], ["掌", "握"]]}