{"type": "bpe", "base": [" ", "!", "\"", "#", "%", "&", "'", "(", ")", "*", "+", ",", "-", ".", "/", "0", "1", "2", "3", "4", "5", "6", "7", "8", "9", ":", ";", "<", "=", ">", "?", "@", "A", "B", "C", "D", "E", "F", "G", "H", "I", "J", "K", "L", "M", "N", "O", "P", "Q", "R", "S", "T", "U", "V", "W", "X", "Y", "[", "\\", "]", "_", "`", "a", "b", "c", "d", "e", "f", "g", "h", "i", "j", "k", "l", "m", "n", "o", "p", "q", "r", "s", "t", "u", "v", "w", "x", "y", "z", "{", "|", "}", "~", "·", "×", "÷", "—", "‖", "“", "”", "…", "→", "∈", "≈", "≠", "≥", "①", "②", "③", "─", "│", "└", "├", "►", "▼", "✔", "、", "。", "《", "》", "「", "」", "『", "』", "【", "】", "一", "万", "三", "上", "下", "不", "与", "专", "且", "世", "业", "丛", "丢", "两", "严", "个", "中", "丰", "串", "临", "为", "主", "久", "么", "义", "之", "乌", "乎", "乐", "九", "也", "习", "书", "乱", "了", "予", "争", "事", "二", "于", "云", "互", "五", "些", "亡", "交", "亦", "产", "享", "亲", "人", "亿", "什", "仅", "今", "仍", "从", "仓", "他", "付", "代", "令", "以", "们", "仰", "件", "价", "任", "份", "仿", "企", "众", "优", "伙", "会", "传", "估", "伴", "伸", "似", "但", "位", "低", "住", "体", "何", "余", "作", "你", "佳", "使", "例", "供", "依", "侧", "促", "保", "信", "修", "倍", "候", "借", "值", "倾", "假", "偏", "做", "停", "健", "储", "像", "允", "元", "充", "兆", "先", "光", "克", "免", "兜", "入", "全", "公", "六", "共", "关", "兴", "兵", "其", "具", "典", "养", "兼", "内", "册", "再", "冒", "冗", "写", "冲", "决", "况", "冷", "冻", "净", "准", "减", "几", "凭", "出", "击", "函", "分", "切", "刊", "划", "列", "则", "创", "初", "判", "利", "别", "到", "制", "刷", "刺", "刻", "前", "剔", "剪", "副", "力", "办", "功", "加", "务", "劣", "动", "助", "励", "劳", "势", "勤", "包", "化", "匹", "区", "医", "十", "千", "升", "半", "协", "卓", "单", "占", "卡", "印", "危", "即", "卷", "厂", "历", "压", "厚", "原", "去", "参", "又", "及", "友", "双", "反", "发", "取", "受", "变", "口", "句", "另", "只", "召", "可", "台", "史", "号", "司", "各", "合", "同", "名", "后", "吐", "向", "君", "吞", "否", "含", "启", "吸", "吾", "呈", "告", "员", "周", "味", "命", "和", "品", "哈", "响", "哪", "唯", "商", "善", "喧", "喻", "嗅", "器", "噪", "嚣", "四", "回", "因", "团", "园", "围", "固", "国", "图", "土", "在", "地", "场", "址", "均", "坏", "块", "坚", "垂", "型", "域", "培", "基", "堆", "塌", "塑", "塞", "填", "境", "墙", "增", "声", "壳", "处", "备", "复", "外", "多", "够", "大", "天", "央", "失", "头", "夹", "奇", "奏", "契", "奖", "套", "好", "如", "妙", "妥", "始", "威", "子", "字", "存", "孙", "季", "学", "它", "守", "安", "完", "官", "定", "实", "审", "客", "室", "家", "容", "宽", "宿", "密", "富", "察", "寸", "对", "寻", "导", "射", "将", "小", "少", "尖", "尚", "尝", "就", "尺", "尽", "尾", "层", "展", "属", "岗", "崩", "嵌", "巢", "工", "巨", "差", "己", "已", "市", "布", "师", "希", "带", "帧", "帮", "常", "幅", "干", "平", "年", "并", "广", "序", "库", "应", "底", "度", "座", "康", "延", "建", "开", "异", "弃", "式", "引", "张", "弦", "弱", "弹", "强", "归", "当", "录", "形", "影", "彻", "彼", "往", "征", "径", "待", "很", "律", "得", "循", "微", "德", "徼", "心", "必", "忆", "志", "忠", "快", "念", "态", "怎", "怕", "思", "急", "性", "总", "恒", "恢", "息", "恶", "悉", "情", "惩", "惯", "想", "愈", "意", "感", "愠", "愿", "慢", "懂", "戏", "成", "我", "或", "战", "截", "户", "房", "所", "手", "才", "扎", "扑", "打", "托", "执", "扩", "扫", "扮", "批", "找", "承", "技", "把", "抓", "投", "抖", "抢", "护", "报", "抱", "抽", "担", "拆", "拉", "拒", "拓", "拔", "招", "拟", "拥", "拦", "择", "括", "拷", "拼", "拿", "持", "指", "按", "挑", "挖", "挥", "损", "换", "据", "捷", "掉", "掌", "排", "掘", "探", "接", "控", "推", "掩", "描", "提", "插", "握", "搀", "搜", "搭", "摘", "摩", "撑", "撬", "播", "撰", "擅", "操", "擎", "擦", "攀", "支", "收", "改", "攻", "放", "政", "故", "效", "敏", "教", "敛", "敢", "散", "敬", "数", "整", "文", "斗", "料", "斥", "断", "新", "方", "施", "旋", "无", "既", "日", "旧", "早", "时", "明", "易", "映", "是", "显", "景", "晰", "智", "暂", "暖", "暴", "曰", "曲", "更", "曾", "替", "最", "月", "有", "朋", "服", "望", "期", "木", "未", "末", "本", "术", "机", "杂", "权", "材", "束", "条", "来", "松", "板", "极", "构", "析", "果", "架", "某", "染", "柜", "查", "栅", "标", "栈", "栏", "校", "样", "核", "根", "格", "框", "案", "桌", "档", "桥", "梁", "梯", "检", "棒", "棘", "椀", "楚", "概", "榜", "榨", "槛", "模", "次", "欢", "欲", "款", "歌", "止", "正", "此", "步", "死", "殆", "残", "段", "母", "每", "比", "毫", "气", "氛", "水", "永", "求", "汇", "池", "污", "沉", "沙", "沟", "没", "治", "沿", "法", "泛", "波", "注", "洀", "洁", "洗", "洞", "活", "派", "流", "测", "海", "浸", "消", "涉", "涌", "液", "涵", "淀", "深", "混", "清", "渗", "温", "渲", "游", "湖", "湿", "溃", "源", "溢", "溯", "滚", "满", "漂", "漏", "演", "潜", "火", "灰", "灵", "灾", "炸", "点", "炼", "烈", "烟", "热", "焉", "然", "照", "熟", "燃", "爀", "爆", "爬", "爱", "片", "版", "牌", "物", "牵", "特", "犯", "状", "独", "献", "玄", "率", "玩", "环", "现", "班", "理", "琐", "瓦", "瓶", "生", "用", "由", "申", "电", "画", "畅", "界", "畏", "留", "略", "疆", "疏", "痕", "痛", "登", "白", "百", "的", "益", "监", "盒", "盖", "盘", "目", "盲", "直", "相", "省", "看", "真", "眼", "着", "督", "瞻", "矣", "知", "矩", "短", "石", "矿", "码", "研", "破", "础", "硬", "确", "碎", "碑", "磁", "磨", "示", "社", "祉", "神", "票", "禁", "福", "离", "秀", "种", "科", "秒", "秦", "秩", "积", "称", "移", "稀", "程", "税", "稠", "稳", "究", "空", "穿", "突", "窗", "立", "站", "竞", "章", "端", "笔", "符", "第", "等", "答", "策", "筛", "筹", "签", "简", "算", "管", "箱", "籍", "类", "粘", "精", "糊", "系", "素", "索", "紧", "累", "繁", "纠", "红", "约", "级", "纪", "纯", "纳", "纸", "纹", "纽", "线", "练", "组", "细", "织", "终", "经", "结", "绕", "给", "络", "绝", "统", "继", "绩", "绪", "续", "维", "综", "缀", "缓", "编", "缝", "缩", "缺", "网", "罔", "罕", "罚", "置", "署", "美", "群", "考", "者", "而", "耕", "耗", "耦", "职", "联", "聘", "聚", "背", "胜", "能", "脑", "脚", "脱", "腻", "自", "至", "致", "舍", "航", "般", "良", "色", "艺", "节", "芒", "芯", "花", "若", "英", "范", "荆", "荐", "荣", "获", "营", "落", "著", "蒸", "薪", "虚", "虫", "蚁", "蚂", "融", "行", "衡", "补", "表", "衰", "衷", "被", "裁", "裂", "装", "裕", "裹", "要", "覆", "见", "观", "规", "视", "览", "觉", "角", "解", "触", "言", "计", "订", "认", "让", "训", "议", "记", "讲", "许", "论", "设", "访", "证", "评", "识", "诉", "诊", "词", "译", "试", "诗", "诚", "话", "诡", "询", "该", "语", "误", "说", "请", "诺", "读", "课", "调", "谈", "谋", "谓", "谢", "谨", "象", "貌", "贝", "负", "贡", "财", "责", "败", "账", "货", "质", "贪", "购", "贯", "贴", "费", "资", "赋", "赖", "赛", "走", "起", "超", "越", "趋", "趣", "足", "跃", "跑", "距", "跟", "跨", "路", "跳", "践", "踏", "踪", "蹊", "身", "轨", "转", "轮", "软", "轻", "载", "较", "辄", "辅", "辑", "输", "辟", "辨", "边", "达", "迁", "过", "迈", "迎", "运", "近", "返", "还", "这", "进", "远", "连", "迟", "迭", "述", "迹", "追", "退", "送", "适", "逃", "选", "透", "逐", "递", "逗", "通", "速", "造", "逸", "逻", "逼", "遇", "道", "遗", "遵", "避", "那", "邻", "部", "都", "配", "酬", "醒", "采", "释", "里", "重", "野", "量", "金", "针", "钟", "钳", "钻", "铁", "银", "铸", "铺", "链", "销", "锁", "锋", "锐", "错", "键", "镜", "长", "门", "闭", "问", "间", "阈", "阔", "队", "防", "阵", "阶", "附", "际", "降", "限", "院", "除", "险", "陪", "陷", "随", "隐", "隔", "障", "难", "雅", "集", "雏", "零", "需", "露", "静", "非", "靠", "面", "革", "页", "顶", "项", "顺", "须", "预", "领", "颈", "频", "题", "额", "颠", "风", "馈", "首", "驭", "驱", "驻", "驾", "验", "骨", "骼", "高", "魂", "鲁", "鲜", "黑", "默", "鼓", "齐", "！", "（", "）", "，", "：", "；", "＝", "？", "～"], "merges": [[",", " "], ["n", "t"], ["e", "s"], ["o", "r"], ["a", "r"], ["i", "n"], ["=", " "], ["e", "nt"], ["s", "e"], ["t", " "], ["o", "n"], [" ", "= "], ["数", "据"], ["d", "e"], ["e", "n"], ["g", "ent"], ["r", "e"], ["-", " "], ["t", "e"], ["A", "gent"], ["t", "o"], ["模", "型"], ["l", "o"], ["s", " "], ["a", "t"], [":", " "], ["c", "h"], ["Agent", " "], ["─", "─"], ["#", " "], ["r", "o"], ["n", "es"], ["s", "t"], ["训", "练"], ["se", "l"], ["\"", ")"], ["e", "r"], ["sel", "f"], ["m", "p"], ["\"", "\""], ["a", "d"], ["f", " "], ["/", " "], ["t", "i"], ["(", ")"], ["a", "nt"], ["a", "c"], ["`", "`"], ["2", "."], ["+", " "], ["1", "."], ["m", "e"], [" ", "/ "], ["团", "队"], ["N", "es"], ["self", "."], ["ar", "nes"], ["产", "品"], ["能", "力"], ["o", "de"], ["c", "k"], ["-", "-"], ["a", "n"], ["(", "\""], ["t", "_"], ["系", "统"], ["3", "."], ["工", "程"], ["ar", "g"], ["A", "I"], ["方", "向"], ["a", "l"], ["s", "."], ["H", "arnes"], ["l", "i"], ["Nes", "t "], ["设", "计"], [" ", "+ "], ["in", " "], ["to", "k"], ["\"", ", "], ["or", " "], ["l", "e"], ["Harnes", "s "], ["|", " "], ["L", "L"], ["LL", "M"], ["4", "."], ["o", "l"], ["in", "g"], ["研", "究"], ["or", "ch"], ["u", "r"], ["#", "# "], ["i", "z"], ["i", "d"], ["ant", "Nest "], ["经", "验"], ["t", "orch"], ["r", "i"], ["i", "mp"], ["imp", "or"], ["impor", "t "], ["i", "f "], [".", "p"], ["──", "──"], ["m", " "], ["n", "_"], ["\"", ": "], ["开", "发"], ["at", "h"], ["0", " "], ["n", " "], ["m", "ode"], ["mode", "l"], ["ti", "on"], ["\"\"", "\""], ["\\", "n"], ["工", "作"], ["t", "ur"], ["f", "\""], ["职", "位"], ["负", "责"], ["t", "s"], [")", " "], ["x", "t"], ["``", "`"], ["re", "tur"], ["retur", "n "], ["c", "o"], ["f", "or "], ["de", "f "], ["AI", " "], ["工", "具"], ["任", "务"], ["a", "s"], ["a", "p"], ["技", "术"], ["l", "l"], ["to", "ol"], ["torch", "."], [" ", "in "], ["j", "s"], ["工程", "师"], ["方", "案"], ["优", "化"], ["u", "t"], ["→", " "], ["\"", "]"], ["m", "a"], ["js", "on"], ["t", "h"], [" ", "Agent "], ["评", "测"], ["岗", "位"], ["[", "\""], ["深", "度"], [" ", "A"], ["l", "en"], ["*", "*"], ["算", "法"], [")", ":"], ["p", "e"], ["真", "实"], ["or", "y"], [" ", "| "], ["c", "or"], ["要", "求"], ["质", "量"], ["ac", "tion"], ["网", "络"], ["v", "al"], ["用", "户"], ["【", "岗位"], ["性", "能"], ["_", "_"], ["f", "i"], ["u", "l"], ["d", "ing"], ["ant", "nes"], ["ad", "_"], ["5", "."], ["）", "，"], ["（", "Agent "], ["核", "心"], ["理", "解"], ["r", "a"], ["P", "U"], ["p", "o"], ["s", " = "], ["\", ", "\""], ["架", "构"], ["o", "p"], ["h", "e"], ["d", "i"], [" ", "→ "], ["问", "题"], ["持", "续"], ["熟", "悉"], ["a", "se"], ["e", " "], ["e", "m"], ["co", "ding"], ["u", "m"], ["a", "me"], ["学", "习"], ["LLM", " "], ["st", "r"], ["te", "xt"], ["d", "("], ["=", "\""], ["具", "备"], ["领", "域"], [" ", "antNest "], ["f", "ro"], ["fro", "m "], ["arg", "s."], ["我", "们"], ["tok", "en"], ["in", "i"], ["p", "ro"], ["lo", "ck"], ["规", "模"], ["预", "训练"], ["f", "-"], ["g", "e"], ["相", "关"], [">", " "], ["ut", "f-"], ["utf-", "8"], ["_", "s"], ["使", "用"], ["0", "."], ["y", "th"], ["yth", "on"], ["管", "理"], ["自", "动"], ["i", "nt"], ["b", "lock"], ["len", "("], ["\"", ":"], ["服", "务"], [" ", "C"], ["lo", "s"], ["{", "\""], [" ", "AI "], ["经验", "。"], ["信", "息"], [" ", "等"], [" ", " "], ["e", "x"], ["te", "r"], ["iz", "er"], ["## ", "M"], ["antnes", "t_"], [")", ")"], ["职", "责"], ["完", "成"], ["硬", "件"], ["ma", "x"], ["研究", "员"], ["要求", "】"], ["基", "础"], ["p", "ar"], [" ", "Harness "], ["c", "t"], ["职责", "】"], ["模", "态"], ["）", "。"], ["g", "i"], ["b", "es"], [" ", "-"], ["p", "ath"], ["n", "ame"], ["\"", ","], ["多", "模态"], ["p", "u"], ["e", "w"], ["d", "_"], ["ll", "m"], ["2", " "], [" ", "import "], ["iz", "e"], ["R", "T"], ["ul", "t"], ["，", "能"], ["场", "景"], ["语", "料"], ["G", "I"], ["r", "es"], ["交", "付"], ["分", "析"], ["大", "规模"], ["t", "ra"], ["p", "en"], ["T", " "], ["s", "h"], ["o", "c"], ["i", "st"], ["────", "────"], ["c", "f"], ["建", "设"], ["in", "e"], ["执", "行"], [".p", "y"], ["li", "st"], ["s", ", "], ["on", "e"], ["大", "模型"], ["深", "入"], ["计", "算"], ["测", "试"], ["实", "现"], ["—", "—"], ["u", "p"], ["s", "a"], ["P", "ath"], ["描", "述"], ["，", "对"], ["存", "储"], ["s", "te"], ["from ", "."], ["(", "self"], ["t ", "= "], ["职位", "描述"], ["使", "命"], ["智", "能"], ["探", "索"], ["搜", "索"], ["S", "F"], ["运", "维"], ["推", "理"], ["环", "境"], ["p", "t"], ["a", "b"], ["me", "m"], ["--", "--"], ["te", "_"], ["]", ", "], ["cor", "pu"], ["b", "d"], ["落", "地"], ["体", "系"], [" ", "R"], ["通", "过"], ["一", "个"], ["a", "gent"], ["沙", "箱"], ["集", "群"], ["y", "pe"], ["u", "n"], ["负责", "人"], ["3", " "], ["li", "ent"], ["s", "()"], ["n", "o"], ["lo", "ad_"], ["A", "RT"], ["cf", "g"], ["类", "型"], ["Nes", "t"], ["中", "心"], ["- ", "负责人"], ["- 负责人", "："], ["采", "样"], ["s", "_"], ["-", "1"], ["N", "one"], ["t", "ype"], ["um", "ent"], ["业", "务"], ["研", "发"], ["默", "认"], ["w", "or"], ["pro", "mp"], ["s", "p"], ["ar", "ti"], ["v", "oc"], ["voc", "ab"], ["c", "ode"], ["b", "ase"], ["=", "= "], [", ", "\""], ["g", "r"], ["团队", "使命"], ["协", "作"], ["参", "与"], ["平", "台"], ["加", "分"], ["段", "落"], ["框", "架"], ["规", "划"], [" ", "1"], ["arti", "f"], ["artif", "ac"], ["r", "an"], [" ", "for "], ["_s", "ize"], ["f\"", "{"], [".", "ad"], ["id", "x"], ["团队使命", "】"], ["迭", "代"], ["维", "护"], ["结", "构"], ["解", "决"], ["职位", "信息"], ["职", "能"], ["职能", "类型"], ["默认", "段落"], ["默认段落", "字"], ["默认段落字", "体"], ["优", "先"], ["l", "a"], ["数据", "中心"], ["ste", "p"], ["token", "izer"], ["de", "f"], ["def", "a"], ["【", "团队使命】"], ["全", "职"], ["策", "略"], ["tra", "in"], ["经", "理"], ["ch", "e"], ["d", " "], ["报", "告"], ["词", "表"], ["text", "("], ["en", "coding"], ["encoding", "=\""], ["encoding=\"", "utf-8"], ["encoding=\"utf-8", "\")"], [".p", "ar"], ["max", "_"], ["构", "建"], ["边", "界"], ["】", "："], ["处", "理"], ["代", "码"], [" ", "M"], ["自动", "化"], ["s", "c"], [".", "json"], ["p", "ython"], [".", "m"], ["(self", ", "], [")", "."], ["type", "="], ["cfg", "[\""], ["n_", "em"], ["n_em", "bd"], ["he", "ad"], ["【岗位", "要求】"], ["开", "源"], ["需", "求"], ["能力", "。"], ["设", "施"], ["验", "证"], ["产品", "经理"], ["定", "义"], ["体", "验"], ["v", "i"], ["f", "ini"], ["artifac", "ts"], ["p", "l"], ["ART", " / "], ["ap", ".ad"], ["ap.ad", "d_"], ["ap.add_", "arg"], ["ap.add_arg", "ument"], ["ap.add_argument", "(\""], ["ap.add_argument(\"", "--"], ["defa", "ult"], ["lo", "gi"], ["提", "升"], ["编", "程"], ["项", "目"], ["，", "不"], ["的", " "], ["T", "o"], ["G", "PU"], ["采", "购"], ["n", "n"], ["字", "符"], [") ", "-"], [") -", "> "], ["k", "e"], ["s", "("], ["id", "s"], [" ", "{"], ["\":", "\""], ["保", "障"], ["，", "并"], ["0", "0"], ["(", "1"], ["【", "工作"], ["wor", "k"], ["mem", "ory"], ["G", "P"], ["u", "e"], ["u", "re"], ["l", "r"], ["w", "ar"], ["w", "ri"], ["c", "l"], ["t", "(\""], ["}", "\\n"], ["block", "_size"], ["(", "f\""], ["分", "布"], ["分布", "式"], ["优", "秀"], [" ", "P"], ["专", "业"], ["基础", "设施"], ["包", "括"], ["定", "位"], ["文", "件"], ["评", "估"], ["动", "作"], ["ART / ", "f\"{"], ["p", "ri"], ["pri", "nt"], ["软", "件"], ["高", "效"], ["、", "可"], ["的", "数据"], ["自", "己"], ["沟", "通"], ["【工作", "职责】"], ["进", "化"], ["建", "立"], ["nn", "."], ["ck", "pt"], ["mp", "le"], ["h", "arnes"], ["ch", "ar"], ["s", "f"], ["g", "es"], [": ", "str"], ["no", "t "], ["+", "= "], ["tok", "."], ["[", ":"], ["n", "ew"], ["ti", "me"], ["共", "同"], ["推", "动"], ["熟", "练"], ["运", "行"], ["，", "有"], ["范", "式"], ["通", "信"], ["6", "."], ["e", "p"], ["en", "s"], ["## M", "0 "], ["1", "+ "], ["ac", "e"], ["fini", "sh"], ["wri", "te_"], ["```", "action"], ["json", "."], ["\"]", ", "], ["s", "cor"], ["n_", "head"], ["model", "."], ["p", "_"], ["ro", "le"], ["稳", "定"], ["【", "加分"], ["【加分", "项"], ["【加分项", "】"], ["以", "上"], ["了", "解"], ["知", "识"], ["判", "断"], ["高", "性能"], ["nt", "Nest "], ["A", " "], ["u", "b"], ["每", "一"], ["A", "GI"], ["路", "径"], ["v", "2"], ["4", " "], ["che", "ck"], ["2", "8"], ["/", "work"], ["/work", "sp"], ["## M", "1+ "], ["antnest_", "llm"], ["self.", "_"], [".", "ge"], [" ", "== "], ["，", "持续"], ["、", "C"], ["前", "沿"], ["提", "供"], ["调", "度"], ["参", "数"], ["复", "杂"], ["长", "期"], ["L", "o"], ["Lo", "op"], ["o", "f"], ["目", "标"], ["a", "m"], ["at", "i"], ["check", "po"], ["checkpo", "int"], ["）", "："], ["T", "in"], ["Tin", "y"], ["Tiny", "GP"], ["b", "u"], [" ", "|"], ["m", "er"], ["lo", "ad"], ["ap", "pen"], ["appen", "d("], ["s", "\": "], ["e", "val"], ["max_", "new"], ["ma", "in"], ["驱", "动"], ["产品", "的"], ["实", "践"], ["L", " "], ["与", "数据"], ["安", "全"], ["流", "程"], [" A", "ntNest "], ["独", "立"], ["热", "情"], ["需", "要"], ["对", "话"], [" ", "的"], ["算", "力"], ["标", "准"], ["文", "本"], ["/worksp", "ace"], ["re", "ad_"], ["fi", "le"], ["O", "N"], ["SF", "T "], ["c", "on"], ["```", "python"], ["0", ", "], [")", ", "], ["=", "T"], ["=T", "r"], ["=Tr", "ue"], ["(", "ART / f\"{"], ["}", "_"], ["se", "r"], ["logi", "ts"], ["default", "="], ["P", "I"], ["计算", "机"], ["资", "源"], ["世", "界"], ["清", "洗"], ["模型", "训练"], ["原", "理"], ["，", "从"], ["《", "1"], ["s", "/"], ["0", "0 "], ["后", "训练"], ["闭", "环"], ["b", "at"], ["bat", "ch"], ["1", " "], ["C", "lient"], ["artifacts", "/"], [".m", "d"], ["# ", "-"], ["# -", "*"], ["# -*", "- "], ["# -*- ", "coding"], ["# -*- coding", ": "], ["# -*- coding: ", "utf-8"], ["# -*- coding: utf-8", " -"], ["# -*- coding: utf-8 -", "*"], ["# -*- coding: utf-8 -*", "-"], ["base", "_"], [")", "}"], ["0", "]"], [".ge", "t(\""], ["\")", "."], [" = ", "torch."], ["p", "re"], ["as", "k"], ["招", "聘"], ["中", "的"], [" ", "S"], ["d", "u"], ["，", "熟悉"], [" A", "GI"], [" ", "LLM "], ["结", "果"], ["记", "忆"], ["O", "pen"], ["v", "e"], ["修", "复"], ["P", "O"], ["（Agent ", "1"], ["|", "----"], ["re", "w"], ["i", "l"], ["vi", "ew"], ["o", "ut"], ["l", "ine"], ["\"", "}"], ["bes", "t_"], ["load_", "corpu"], ["pre", "fi"], ["prefi", "x"], ["er", "at"], ["h", "ist"], ["hist", "ory"], ["\",", "\""], ["tool", "s"], ["，", "让"], ["。", "我们"], ["语", "言"], ["，", "为"], ["/", "算法"], ["【岗位", "类"], ["【岗位类", "别"], ["【岗位类别", "】："], ["，", "具备"], ["模型", "的"], ["方向", "、"], ["优秀", "的"], ["直", "接"], ["通", "用"], ["、", "M"], ["n", "g"], ["一", "致"], ["可", "能"], ["算", "子"], ["ro", "up"], ["e", "xt"], [" ", "I"], [" ", "3"], ["《", "2"], ["P", "E"], ["方案", "》"], ["p", "y"], ["antnest_", "harnes"], ["ct", "x"], ["di", "r"], ["bu", "il"], ["ro", "un"], ["\"\"\"", "Agent "], ["di", "ct"], ["\": ", "\""], [")", ","], ["=", "1"], ["t", "ask"], ["(", "model"], ["print", "(f\""], ["f", "}"], ["\", ", "type="], [", ", "default="], ["扩", "展"], ["性", "。"], ["扎", "实"], ["、", "网络"], ["好", "的"], ["，", "包括"], ["覆", "盖"], ["统", "计"], ["方", "式"], ["ad", "c"], ["adc", "ase"], ["D", "M"], ["7", "."], ["机", "制"], ["m", "es"], ["前", "端"], [" ", "J"], ["协", "议"], ["g", "roup"], ["he", "ll"], ["主", "场"], ["蚁", "巢"], ["（Agent ", "2"], ["d", "at"], ["B", "PE"], ["__", "ini"], ["__ini", "t_"], ["__init_", "_"], ["(", "p"], ["()", ":"], ["roun", "d("], ["l", "p"], ["i", "ter"], ["/workspace", "/"], ["创", "新"], ["支", "持"], ["实", "验"], ["可", "靠"], ["深度", "学习"], ["预训练", "数据"], ["反", "馈"], ["关", "键"], ["清", "晰"], ["管", "线"], ["Agent ", "Harness "], ["上", "下"], ["科", "学"], ["进", "行"], ["办", "公"], ["D", "S"], ["配", "置"], ["交", "互"], ["故", "障"], ["an", "d "], ["产", "出"], ["o", "ck"], ["本", "地"], ["A", "N"], ["（", "M"], ["数据", "产品经理"], ["维", "度"], ["情", "感"], ["）", "研究员"], [" ", "2"], ["ckpt", ".p"], ["ri", "p"], ["TinyGP", "T"], ["_", "con"], ["cl", "as"], ["ke", "y"], ["[", "0]"], ["par", "ts"], ["str", ":"], ["read_", "text("], ["read_text(", "encoding=\"utf-8\")"], ["code", "("], [":", "]"], [":", "."], ["p_", "len"], [", ", "args."], ["c", "lient"], ["观", "测"], ["效", "率"], ["系统", "的"], ["快", "速"], ["，", "或"], ["设计", "、"], ["及", "以上"], ["5", " "], ["【岗位类别】：", "全职"], ["优先", "。"], ["回", "归"], ["工作", "。"], ["系统", "性"], ["合", "作"], ["方", "法"], ["em", "ory"], ["公", "司"], ["e", "c"], ["人", "才"], ["C", "L"], ["，", "而"], ["输", "出"], ["f", "lo"], ["l", "on"], ["promp", "t "], ["i", "te"], ["交付", "物"], ["antnest_llm", "/"], ["To", "k"], ["Tok", "en"], ["Token", "izer"], ["from ", "path"], ["from path", "li"], ["from pathli", "b"], ["from pathlib", " import "], ["from pathlib import ", "Path"], ["t", "("], ["i", " in "], ["────────", "────────"], ["0", ")"], ["[", "i"], ["if ", "not "], [".", "append("], ["i", "s "], [" == ", "\""], [" = ", "Path"], ["\")", ","], ["gr", "po"], ["arg", "s"], ["\"], ", "cfg[\""], ["y", "er"], ["te", "mp"], ["temp", "erat"], ["temperat", "ure"], ["mes", "sa"], ["深度", "参与"], ["招聘", "方向"], ["【岗位", "职责】"], ["，能", "够"], ["应", "用"], ["至", "少"], ["发", "现"], ["链", "路"], ["良", "好的"], ["全", "栈"], ["2.", " "], ["采", "集"], ["生", "产"], ["1.", "负责"], ["针", "对"], ["调", "优"], ["以", "及"], ["愿", "意"], ["训练", "与"], ["操", "作"], [" AGI", " "], ["y", " "], ["问题", "。"], ["、", "S"], ["DM", "A "], ["R", "e"], ["E", "ng"], ["ine", "er"], ["ineer", "ing"], ["A", "S"], ["t", "es"], ["编", "译"], ["D", " "], ["ens", "or"], ["真", "正"], ["基", "线"], ["资", "产"], ["奖", "励"], ["lon", "g"], ["antNest ", "LLM "], [" ", "<"], ["生", "成"], ["建", "议"], ["Nest", "Agent"], ["  ", "  "], ["S", "ON"], ["- ", "1"], ["()", ", "], [" = ", "["], ["ite", "m"], ["\")", ":"], ["bes", "t"], [" / ", "\""], ["。", "\"\"\""], ["co", "nt"], ["*", " "], ["(", "r"], ["fi", "g"], ["}", "\")"], ["\", type=", "int"], ["\", type=int", ", default="], ["招聘方向", "【"], ["可", "观测"], ["掌", "握"], ["的", "技术"], ["搭", "建"], ["个", "人"], ["下", "一"], ["瓶", "颈"], ["研发", "工程师"], ["1.", " "], ["P", "ython"], ["指", "标"], ["行", "为"], ["可", "用"], ["合", "规"], ["格", "式"], ["经", "历"], ["（", "如"], ["下", "的"], ["adcase", " "], ["成", "本"], ["，", "在"], ["2.", "熟悉"], ["转", "化"], ["上下", "文"], ["ub", "agent"], ["ul", "ti"], ["ulti", "-"], ["自己", "的"], ["To", "ol"], ["k", "i"], ["Eng", "ineering"], ["社", "区"], ["背", "景"], ["运", "营"], ["O", "S"], ["时", "代"], ["w", "i"], ["接", "入"], ["e", "d"], ["（", "数据"], ["编", "码"], ["los", "s "], ["3", "2 "], ["p", "a"], ["checkpoint", " "], ["sa", "mple"], ["antnest_harnes", "s/"], ["s", "hell"], ["|----", "--"], ["e", "l"], ["2", "4"], ["pl", "an"], ["de", "m"], ["dem", "o"], ["/", "1"], ["LLM", "Client"], ["b", "pe"], ["clas", "s "], ["mer", "ges"], ["# ", "──"], [") -> ", "str:"], ["write_", "text("], ["F", "al"], ["Fal", "se"], ["s", "to"], ["sto", "i"], [" -", "> "], [" ", "or "], ["s", "um"], ["load_corpu", "s_"], ["t", "ensor"], ["tensor", "("], ["par", "se"], [".par", "ent"], ["flo", "at"], ["a", "te_"], ["c", "e"], ["model", "_con"], ["model_con", "fig"], ["{\"", "action"], [": ", "{"], ["开发", "工程师"], ["协", "同"], ["，", "你"], ["、", "数据"], ["，", "与"], ["紧", "密"], ["能力", "，"], ["优化", "。"], ["大", "型"], ["下一", "代"], ["，", "用"], ["监", "控"], ["品", "味"], ["3.", " "], ["者", "优先。"], ["数据", "处理"], ["an", "d"], ["组", "织"], ["细", "节"], ["常", "见"], ["C", "P"], [" R", "DMA "], ["共同", "进化"], ["基", "本"], ["开源", "社区"], ["路", "线"], ["第", "一"], ["风", "险"], ["I", "n"], ["设", "备"], ["物", "理"], ["相", "信"], ["D", "e"], ["o", "u"], ["变", "更"], ["t", "/"], ["de", "r"], ["创", "作"], ["财", "务"], ["9", "5"], ["Harnes", "s"], ["9", " "], ["ext", "r"], ["extr", "ac"], ["extrac", "te"], ["val", " "], ["vocab", ".json"], ["# ", "1"], ["dat", "a"], ["通过", "率"], ["直", "连"], ["re", "view"], ["as", "s"], ["def ", "__init__"], ["a", "te"], [", ", "c"], ["e", "_"], ["# ──", " "], ["ran", "ge"], ["as", "c"], ["asc", "i"], ["asci", "i"], ["=", "False"], ["\\n", "\""], ["d", "type="], ["torch.", "long"], ["se", " "], ["ac", "k"], ["+= ", "0."], ["res", "ult"], ["model_config", ".json"], ["n_", "la"], ["n_la", "yer"], ["(model", ", "], ["promp", "t"], ["ame", "ter"], [" = ", "self."], ["f", "x"], ["的", "工程"], ["全职", "】："], ["不", "同"], ["面", "向"], [" A", "PI"], ["熟练", "掌握"], ["离", "线"], ["协", "助"], ["性", "、"], ["方案", "。"], ["本", "科"], ["本科", "及以上"], ["本科及以上", "学"], ["本科及以上学", "历"], ["部", "署"], ["底", "层"], ["高", "质量"], ["实", "习"], ["的", "新"], ["日", "常"], ["模型", "能力"], ["角", "色"], ["内", "容"], ["SF", "T"], [" C", "PU"], ["形", "态"], ["追", "求"], ["内", "存"], ["引", "擎"], ["K", "V"], ["感", "知"], ["持续", "学习"], ["与", " "], ["转化", "为"], ["有", "极"], ["深度", "使用"], ["生", "活"], ["Agent ", "Loop"], ["人", "的"], ["相关", "的"], ["U", "I"], ["u", "s"], ["思", "考"], ["响", "应"], ["满", "足"], ["主", "流"], ["超", "算"], ["互", "联"], ["）", "、"], ["GPU", " "], ["不", "是"], ["版", "本"], ["R", "E"], ["对", "比"], ["服务", "器"], ["渲", "染"], ["“", "主场"], ["h", "ar"], ["N", "E"], ["ing", " "], ["解", "析"], ["外", "部"], ["计", "划"], ["**", "："], ["K", " "], ["00 ", "步"], ["t", "ri"], ["ckpt.p", "t"], [".", "t"], ["6", " "], ["war", "m"], ["warm", "up"], ["write_", "file"], ["目", "录"], ["lo", "g"], ["st", "rip"], ["# ", "antnest_llm/"], ["def __init__", "(self, "], [": ", "int"], ["max", "("], ["in", "("], ["ure", "_"], ["json.", "load"], ["json.load", "s("], ["f", "."], ["t", "s."], ["dtype=", "torch.long"], ["id", "s, "], ["q", "a"], ["_", "gr"], ["s\": ", "round("], ["f", "un"], ["fun", "c"], ["logits", ", "], ["di", "m"], ["to", "list"], ["tolist", "()"], ["u", "me"], ["(", "x"], ["_", "los"], [".par", "ameter"], [".parameter", "s()"], ["t", "."], ["re", "pl"], ["ex", "ist"], ["p", "fx"], ["client", "."], ["messa", "ges"], ["线", "上"], ["大", "的"], ["l", "in"], ["主", "导"], ["模型", "在"], ["，", "是"], ["的", "核心"], ["完", "整"], ["p", "i"], ["信", "号"], ["识", "别"], ["1.", "对"], ["2.", "对"], ["模", "式"], ["R", "L"], ["训练", "数据"], ["一", "定"], ["有", "强"], ["O", "I"], [" 等", "）"], ["支", "撑"], ["深入", "理解"], ["会", "议"], ["任", "何"], ["检", "索"], ["，", "探索"], ["管理", "、"], ["模型", "与"], ["能", "够"], ["行", "业"], ["选", "型"], ["作", "为"], ["C", "ode"], ["关", "系"], ["记", "录"], ["一致", "性"], ["d", "ro"], ["每一", "次"], ["（", "C"], ["保", "持"], ["。", "你"]]}