{"type": "bpe", "base": [" ", "!", "\"", "#", "%", "&", "'", "(", ")", "*", "+", ",", "-", ".", "/", "0", "1", "2", "3", "4", "5", "6", "7", "8", "9", ":", ";", "<", "=", ">", "?", "@", "A", "B", "C", "D", "E", "F", "G", "H", "I", "J", "K", "L", "M", "N", "O", "P", "Q", "R", "S", "T", "U", "V", "W", "X", "Y", "[", "\\", "]", "_", "`", "a", "b", "c", "d", "e", "f", "g", "h", "i", "j", "k", "l", "m", "n", "o", "p", "q", "r", "s", "t", "u", "v", "w", "x", "y", "z", "{", "|", "}", "·", "×", "—", "“", "”", "…", "→", "≠", "≥", "①", "②", "③", "─", "│", "└", "├", "►", "▼", "✔", "、", "。", "《", "》", "「", "」", "『", "』", "【", "】", "一", "万", "三", "上", "下", "不", "与", "专", "且", "世", "业", "两", "严", "个", "中", "丰", "临", "为", "主", "久", "么", "义", "之", "乌", "乎", "乐", "也", "习", "书", "乱", "了", "予", "事", "二", "于", "云", "互", "五", "些", "交", "产", "享", "亲", "人", "亿", "什", "仅", "今", "仍", "从", "仓", "他", "付", "代", "令", "以", "们", "仰", "件", "价", "任", "份", "仿", "企", "众", "优", "伙", "会", "传", "估", "伴", "伸", "似", "但", "位", "低", "住", "体", "何", "余", "作", "你", "佳", "使", "例", "供", "依", "侧", "促", "保", "信", "修", "倍", "候", "借", "值", "倾", "假", "偏", "做", "停", "健", "储", "像", "允", "元", "充", "兆", "先", "光", "克", "免", "兜", "入", "全", "公", "共", "关", "兴", "其", "具", "典", "养", "兼", "内", "册", "再", "冒", "冗", "写", "冲", "决", "况", "冷", "净", "准", "减", "几", "凭", "出", "击", "函", "分", "切", "刊", "划", "列", "则", "创", "初", "判", "利", "别", "到", "制", "刷", "刺", "刻", "前", "剪", "副", "力", "办", "功", "加", "务", "劣", "动", "助", "励", "劳", "势", "勤", "包", "化", "匹", "区", "医", "十", "千", "升", "半", "协", "卓", "单", "占", "卡", "印", "危", "即", "卷", "厂", "历", "压", "厚", "原", "去", "参", "又", "及", "友", "双", "反", "发", "取", "受", "变", "口", "另", "只", "召", "可", "台", "史", "号", "司", "各", "合", "同", "名", "后", "吐", "向", "吞", "否", "含", "启", "吸", "呈", "告", "员", "周", "味", "命", "和", "品", "哈", "响", "哪", "商", "善", "喧", "喻", "嗅", "器", "噪", "嚣", "四", "回", "因", "团", "园", "围", "固", "国", "图", "土", "在", "地", "场", "址", "均", "坏", "块", "坚", "垂", "型", "域", "培", "基", "堆", "塑", "塞", "填", "境", "墙", "增", "声", "壳", "处", "备", "复", "外", "多", "够", "大", "天", "央", "失", "头", "奇", "奏", "契", "奖", "套", "好", "如", "妥", "始", "威", "子", "字", "存", "季", "学", "它", "守", "安", "完", "官", "定", "实", "审", "客", "室", "家", "容", "宽", "宿", "密", "富", "察", "寸", "对", "寻", "导", "射", "将", "小", "少", "尖", "尚", "尝", "就", "尺", "尽", "尾", "层", "展", "属", "岗", "崩", "嵌", "巢", "工", "巨", "差", "己", "已", "市", "布", "师", "希", "带", "帧", "帮", "常", "幅", "干", "平", "年", "并", "广", "序", "库", "应", "底", "度", "座", "康", "延", "建", "开", "异", "式", "引", "弦", "弱", "弹", "强", "归", "当", "录", "形", "影", "往", "征", "径", "待", "很", "律", "得", "循", "微", "德", "心", "必", "忆", "志", "快", "念", "态", "怎", "怕", "思", "急", "性", "总", "恒", "恢", "息", "悉", "情", "惯", "想", "愈", "意", "感", "愿", "慢", "懂", "戏", "成", "我", "或", "战", "截", "户", "房", "所", "手", "才", "扎", "扑", "打", "托", "执", "扩", "扫", "扮", "批", "找", "承", "技", "把", "抓", "投", "抖", "抢", "护", "报", "抱", "抽", "担", "拆", "拒", "拓", "拔", "招", "拟", "拥", "拦", "择", "括", "拷", "拼", "拿", "持", "指", "按", "挑", "挖", "挥", "损", "换", "据", "捷", "掉", "掌", "排", "掘", "探", "接", "控", "推", "掩", "描", "提", "插", "握", "搜", "搭", "摘", "摩", "撑", "撬", "播", "撰", "擅", "操", "擎", "擦", "支", "收", "改", "攻", "放", "政", "故", "效", "敏", "教", "敛", "敢", "散", "敬", "数", "整", "文", "斗", "料", "斥", "断", "新", "方", "施", "旋", "无", "既", "日", "旧", "早", "时", "明", "易", "映", "是", "显", "景", "晰", "智", "暂", "暖", "暴", "曲", "更", "替", "最", "月", "有", "服", "望", "期", "木", "未", "末", "本", "术", "机", "杂", "权", "材", "束", "条", "来", "松", "板", "极", "构", "析", "果", "架", "某", "染", "柜", "查", "栅", "标", "栈", "栏", "校", "样", "核", "根", "格", "框", "案", "桌", "档", "桥", "梁", "梯", "检", "棒", "棘", "楚", "概", "榜", "榨", "槛", "模", "次", "欢", "欲", "款", "歌", "止", "正", "此", "步", "残", "段", "每", "比", "毫", "气", "氛", "水", "求", "汇", "池", "污", "沉", "沙", "沟", "没", "治", "沿", "法", "泛", "波", "注", "洁", "洗", "洞", "活", "派", "流", "测", "海", "浸", "消", "涉", "涌", "液", "涵", "淀", "深", "混", "清", "渗", "温", "渲", "游", "湖", "湿", "溃", "源", "溢", "溯", "滚", "满", "漂", "漏", "演", "潜", "火", "灰", "灵", "灾", "炸", "点", "炼", "烈", "烟", "热", "然", "照", "熟", "燃", "爆", "爬", "爱", "片", "版", "牌", "物", "牵", "特", "犯", "状", "独", "献", "率", "玩", "环", "现", "班", "理", "琐", "瓦", "瓶", "生", "用", "由", "申", "电", "画", "畅", "界", "畏", "留", "略", "疆", "疏", "痕", "痛", "登", "白", "百", "的", "益", "监", "盒", "盖", "盘", "目", "盲", "直", "相", "看", "真", "眼", "着", "督", "瞻", "知", "矩", "短", "石", "矿", "码", "研", "破", "础", "硬", "确", "碑", "磁", "磨", "示", "社", "祉", "神", "票", "禁", "福", "离", "秀", "种", "科", "秒", "积", "称", "移", "稀", "程", "税", "稠", "稳", "究", "空", "穿", "突", "窗", "立", "站", "竞", "章", "端", "笔", "符", "第", "等", "答", "策", "筛", "筹", "签", "简", "算", "管", "箱", "类", "粘", "精", "糊", "系", "素", "索", "紧", "累", "繁", "纠", "红", "约", "级", "纪", "纯", "纳", "纸", "纹", "纽", "线", "练", "组", "细", "织", "终", "经", "结", "绕", "给", "络", "绝", "统", "继", "绩", "绪", "续", "维", "综", "缀", "缓", "编", "缩", "缺", "网", "置", "署", "美", "群", "考", "者", "而", "耕", "耗", "耦", "职", "联", "聘", "聚", "背", "胜", "能", "脑", "脚", "脱", "腻", "自", "至", "致", "舍", "航", "般", "良", "色", "艺", "节", "芒", "芯", "花", "若", "英", "范", "荐", "荣", "获", "营", "落", "蒸", "薪", "虚", "虫", "蚁", "蚂", "融", "行", "衡", "补", "表", "衰", "衷", "被", "裁", "裂", "装", "裕", "裹", "要", "覆", "见", "观", "规", "视", "览", "觉", "角", "解", "触", "言", "计", "订", "认", "让", "训", "议", "记", "讲", "许", "论", "设", "访", "证", "评", "识", "诉", "诊", "词", "译", "试", "诗", "诚", "话", "诡", "询", "该", "语", "误", "说", "请", "诺", "读", "课", "调", "谈", "谢", "谨", "象", "貌", "贝", "负", "贡", "财", "责", "败", "账", "货", "质", "贪", "购", "贯", "贴", "费", "资", "赋", "赖", "赛", "走", "起", "超", "越", "趋", "趣", "足", "跃", "跑", "距", "跟", "跨", "路", "跳", "践", "踏", "踪", "蹊", "身", "轨", "转", "轮", "软", "轻", "载", "较", "辅", "辑", "输", "辟", "辨", "边", "达", "迁", "过", "迈", "迎", "运", "近", "返", "还", "这", "进", "远", "连", "迟", "迭", "述", "迹", "追", "退", "送", "适", "逃", "选", "透", "逐", "递", "通", "速", "造", "逸", "逻", "逼", "遇", "道", "遗", "避", "那", "邻", "部", "都", "配", "酬", "醒", "采", "释", "里", "重", "野", "量", "金", "针", "钟", "钻", "铁", "银", "铸", "铺", "链", "销", "锁", "锋", "锐", "错", "键", "镜", "长", "门", "闭", "问", "间", "阈", "阔", "队", "防", "阵", "阶", "附", "际", "降", "限", "院", "除", "险", "陪", "陷", "随", "隐", "隔", "障", "难", "雅", "集", "雏", "零", "需", "露", "静", "非", "靠", "面", "革", "页", "顶", "项", "顺", "须", "预", "领", "颈", "频", "题", "额", "颠", "风", "馈", "首", "驭", "驱", "驻", "驾", "验", "骨", "骼", "高", "魂", "鲁", "鲜", "黑", "默", "齐", "！", "（", "）", "，", "：", "；", "＝", "？", "～"], "merges": [["n", "t"], [",", " "], ["e", "s"], ["o", "r"], ["a", "r"], ["i", "n"], ["e", "nt"], ["s", "e"], ["=", " "], ["数", "据"], ["t", " "], ["g", "ent"], [" ", "= "], ["o", "n"], ["d", "e"], ["A", "gent"], ["e", "n"], ["模", "型"], ["-", " "], ["s", "t"], ["─", "─"], ["Agent", " "], ["l", "f"], ["a", "t"], ["e", "r"], ["n", "es"], ["se", "lf"], ["s", " "], [":", " "], ["#", " "], ["训", "练"], ["r", "e"], ["t", "o"], ["c", "h"], ["l", "o"], ["a", "nt"], ["\"", "\""], ["2", "."], ["1", "."], ["r", "o"], ["m", "p"], ["self", "."], ["/", " "], ["t", "i"], ["N", "es"], ["团", "队"], ["能", "力"], ["`", "`"], ["产", "品"], ["f", " "], ["ar", "nes"], ["+", " "], ["a", "d"], ["\"", ")"], ["c", "k"], ["系", "统"], ["(", ")"], ["m", "e"], ["A", "I"], ["方", "向"], ["t", "e"], ["工", "程"], [" ", "/ "], ["3", "."], ["a", "c"], ["H", "arnes"], ["t", "_"], ["设", "计"], ["Nes", "t "], ["Harnes", "s "], ["o", "de"], ["s", "."], ["L", "L"], ["(", "\""], ["LL", "M"], ["4", "."], ["研", "究"], ["l", "e"], ["a", "n"], ["ar", "g"], ["l", "i"], [" ", "+ "], ["经", "验"], ["开", "发"], ["ant", "Nest "], ["o", "l"], ["a", "l"], ["or", " "], ["in", " "], ["──", "──"], ["in", "g"], ["职", "位"], ["工", "作"], ["负", "责"], ["to", "k"], ["#", "# "], ["at", "h"], ["\\", "n"], ["AI", " "], ["i", "z"], ["工", "具"], ["m", " "], ["\"", ", "], ["u", "r"], ["-", "-"], ["i", "mp"], ["imp", "or"], ["impor", "t "], ["\"", ": "], ["优", "化"], ["0", " "], ["n", "_"], ["工程", "师"], ["任", "务"], ["方", "案"], ["t", "r"], [" ", "Agent "], ["i", "d"], ["de", "f "], ["岗", "位"], ["p", "y"], ["技", "术"], ["``", "`"], ["l", "l"], ["ti", "on"], ["\"\"", "\""], ["深", "度"], ["a", "s"], ["c", "o"], ["→", " "], ["|", " "], ["f", "or "], ["f", "\""], ["算", "法"], ["ur", "n"], ["to", "ol"], ["要", "求"], ["真", "实"], ["or", "ch"], ["u", "t"], ["t", "urn"], ["【", "岗位"], ["网", "络"], [")", " "], ["用", "户"], [" ", "A"], ["e", "p"], ["re", "turn"], ["return", " "], ["性", "能"], ["p", "ar"], ["or", "y"], ["r", "i"], ["i", "f "], ["质", "量"], ["t", "s"], ["理", "解"], ["t", "orch"], ["评", "测"], ["e", "m"], [")", ":"], ["核", "心"], ["P", "U"], ["a", "p"], ["架", "构"], ["熟", "悉"], ["持", "续"], ["）", "，"], ["ant", "nes"], [" ", "in "], ["问", "题"], ["5", "."], ["m", "ode"], ["mode", "l"], ["LLM", " "], ["a", "se"], ["t", "h"], ["i", "st"], [" ", "→ "], ["具", "备"], ["d", "ing"], [" ", "antNest "], ["ac", "tion"], ["学", "习"], ["相", "关"], ["规", "模"], [" ", "C"], ["m", "a"], ["（", "Agent "], ["我", "们"], [" ", "等"], ["管", "理"], ["j", "s"], ["x", "t"], ["h", "e"], ["服", "务"], ["领", "域"], ["使", "用"], ["预", "训练"], ["u", "l"], ["o", "p"], ["lo", "ck"], ["_", "_"], ["\"", "]"], [" ", "AI "], ["经验", "。"], ["信", "息"], ["in", "e"], ["自", "动"], ["## ", "M"], ["js", "on"], ["职", "责"], ["f", "ro"], ["fro", "m "], ["l", "en"], ["s", " = "], ["a", "me"], ["研究", "员"], ["要求", "】"], [" ", " "], ["co", "ding"], ["b", "lock"], ["\"", ":"], ["[", "\""], ["torch", "."], ["职责", "】"], ["基", "础"], ["p", "e"], ["模", "态"], ["e", "x"], ["硬", "件"], ["in", "i"], ["v", "al"], ["{", "\""], ["\"", ","], ["多", "模态"], ["完", "成"], [" ", "Harness "], ["arg", "s."], ["g", "e"], ["antnes", "t_"], ["ad", "_"], ["p", "ath"], ["场", "景"], [">", " "], ["(", "self"], ["，", "能"], ["th", "on"], ["G", "I"], ["iz", "er"], ["*", "*"], ["len", "("], ["分", "析"], ["大", "规模"], ["f", "i"], ["tr", "a"], ["ck", "p"], ["s", "a"], ["en", "izer"], ["ut", "f"], ["utf", "-"], ["utf-", "8"], ["te", "xt"], ["=", "\""], ["建", "设"], ["深", "入"], ["）", "。"], ["执", "行"], ["i", "nt"], ["ll", "m"], [" ", "-"], ["────", "────"], ["st", "r"], ["描", "述"], ["测", "试"], ["存", "储"], ["d", "i"], ["u", "m"], ["n", "ame"], ["职位", "描述"], ["交", "付"], ["计", "算"], ["搜", "索"], ["，", "对"], ["运", "维"], ["me", "m"], ["e", "w"], ["s", "iz"], ["siz", "e"], [" ", "import "], ["\", ", "\""], ["大", "模型"], ["使", "命"], ["智", "能"], ["探", "索"], ["体", "系"], ["推", "理"], ["实", "现"], ["沙", "箱"], ["T", " "], ["s", "p"], ["b", "es"], ["落", "地"], ["语", "料"], ["a", "gent"], ["p", "en"], ["u", "s"], ["中", "心"], ["负责", "人"], [" ", "| "], ["li", "ent"], ["d", "("], [")", ")"], ["业", "务"], ["研", "发"], ["默", "认"], [" ", "R"], ["d", "_"], ["- ", "负责人"], ["- 负责人", "："], ["P", "ath"], ["(self", ", "], ["b", "d"], ["团队", "使命"], ["协", "作"], ["参", "与"], ["平", "台"], ["加", "分"], ["段", "落"], ["框", "架"], ["规", "划"], ["一", "个"], ["Nes", "t"], ["环", "境"], ["—", "—"], ["2", " "], ["b", "ase"], ["ma", "x"], ["团队使命", "】"], ["职位", "信息"], ["职", "能"], ["职能", "类"], ["职能类", "型"], ["默认", "段落"], ["默认段落", "字"], ["默认段落字", "体"], ["集", "群"], ["数据", "中心"], ["from ", "."], ["【", "团队使命】"], ["全", "职"], ["维", "护"], ["结", "构"], ["解", "决"], [" ", "1"], ["w", "or"], ["s", "h"], ["p", "ro"], ["lo", "s"], ["_", "size"], ["on", "e"], [", ", "\""], ["c", "or"], ["cor", "p"], ["ul", "t"], ["边", "界"], ["迭", "代"], ["】", "："], ["处", "理"], ["策", "略"], ["tra", "in"], ["ch", "e"], ["经", "理"], [".", "py"], ["li", "st"], ["【岗位", "要求】"], ["需", "求"], ["能力", "。"], ["设", "施"], ["验", "证"], ["自动", "化"], ["体", "验"], ["v", "i"], ["a", "m"], ["st", "ep"], [" ", "for "], ["N", "one"], ["构", "建"], ["项", "目"], ["l", "ine"], ["代", "码"], ["优", "先"], [" ", "M"], ["S", "F"], ["产品", "经理"], ["T", "o"], ["G", "PU"], ["a", "b"], ["采", "购"], ["o", "c"], ["s", "()"], ["id", "s"], ["R", "T"], ["\":", "\""], ["，", "并"], ["编", "程"], ["通", "过"], ["【", "工作"], ["定", "义"], ["mem", "ory"], ["r", "es"], ["n", "n"], ["t", "."], ["c", "ode"], ["t ", "= "], ["he", "ad"], ["n_", "em"], ["n_em", "bd"], ["tool", "s"], ["提", "升"], ["保", "障"], ["专", "业"], ["基础", "设施"], ["定", "位"], ["评", "估"], ["u", "p"], ["ac", "e"], ["报", "告"], ["t", "er"], ["ar", "ti"], ["arti", "f"], ["artif", "ac"], ["词", "表"], ["采", "样"], ["py", "thon"], ["n", "o"], ["}", "\\n"], ["、", "可"], ["分", "布"], ["分布", "式"], ["的", "数据"], ["0", "0"], ["自", "己"], ["沟", "通"], ["【工作", "职责】"], ["进", "化"], ["wor", "k"], ["y", "pe"], ["建", "立"], ["nn", "."], ["v", "oc"], ["voc", "ab"], ["tok", "enizer"], ["m", "d"], ["p", "l"], ["g", "es"], [") ", "-"], [") -", "> "], ["lo", "ad_"], ["max", "_"], ["高", "效"], ["推", "动"], [" ", "P"], ["运", "行"], ["en", "s"], ["，", "有"], ["文", "件"], ["范", "式"], ["通", "信"], ["c", "t"], ["## M", "0 "], ["1", "+ "], ["l", "r"], ["h", "arnes"], ["-", "1"], ["r", "an"], ["self.", "_"], ["=", "= "], ["t", "ype"], ["corp", "us"], ["block", "_size"], ["id", "x"], ["(", "f\""], [".", "ad"], ["ro", "le"], ["软", "件"], ["共", "同"], ["熟", "练"], ["【", "加分"], ["【加分", "项"], ["【加分项", "】"], ["开", "源"], ["优", "秀"], ["以", "上"], ["0", "."], ["了", "解"], ["知", "识"], ["包", "括"], ["判", "断"], ["高", "性能"], ["nt", "Nest "], ["A", "GI"], ["路", "径"], ["u", "n"], ["## M", "1+ "], ["artifac", "ts"], ["c", "l"], ["model", "."], ["um", "ent"], ["de", "f"], ["def", "a"], ["稳", "定"], ["，", "持续"], ["、", "C"], ["前", "沿"], ["提", "供"], ["长", "期"], ["L", "o"], ["Lo", "op"], ["f", "ini"], ["s", "c"], ["u", "e"], ["/", "work"], ["/work", "sp"], ["/worksp", "ace"], ["3", " "], ["mp", "le"], ["m", "er"], ["er", "at"], ["e", "("], ["]", ", "], [")", "."], ["text", "("], ["en", "coding"], ["encoding", "=\""], ["encoding=\"", "utf-8"], ["encoding=\"utf-8", "\")"], ["c", "f"], ["驱", "动"], ["产品", "的"], ["与", "数据"], ["安", "全"], [" A", "ntNest "], ["u", "b"], ["6", "."], ["v", "2"], ["G", "P"], ["pro", "mp"], ["u", "re"], ["b", "u"], ["w", "ri"], ["wri", "te"], ["n_", "head"], ["A", "RT"], [" ", "{"], ["p", "ri"], ["pri", "nt"], ["计算", "机"], ["实", "践"], [" ", "的"], ["世", "界"], ["，", "不"], ["an", "d"], ["流", "程"], [" ", "LLM "], ["，", "从"], ["独", "立"], ["热", "情"], ["《", "1"], ["s", "/"], ["《", "2"], ["后", "训练"], ["b", "at"], ["bat", "ch"], ["i", "l"], ["ti", "me"], ["ap", ".ad"], ["ap.ad", "d_"], ["ap.add_", "arg"], ["ap.add_arg", "ument"], ["ap.add_argument", "(\""], ["ap.add_argument(\"", "--"], ["defa", "ult"], ["招", "聘"], ["中", "的"], ["P", "I"], ["模型", "的"], ["调", "度"], ["复", "杂"], ["，", "熟悉"], ["原", "理"], ["A", " "], ["记", "忆"], ["l", "a"], ["O", "pen"], ["标", "准"], ["闭", "环"], ["antnest_", "llm"], ["C", "lient"], ["vi", "ew"], ["```", "action"], ["```", "python"], ["s", "f"], [")", "}"], ["no", "t "], ["0", "]"], [" ", "== "], ["tok", "."], ["type", "="], ["lo", "g"], ["\",", "\""], ["f\"", "{"], [", ", "args."], ["，", "为"], ["资", "源"], ["/", "算法"], ["【岗位", "类"], ["【岗位类", "别"], ["【岗位类别", "】："], ["模型", "训练"], ["方向", "、"], [" A", "GI"], ["结", "果"], ["通", "用"], ["m", "es"], ["每", "一"], ["算", "子"], ["C", "L"], ["d", "at"], ["che", "ckp"], ["checkp", "o"], ["checkpo", "int"], ["方案", "》"], ["write", "_"], ["bu", "il"], ["SF", "T "], ["# ", "-"], ["# -", "*"], ["# -*", "- "], ["# -*- ", "coding"], ["# -*- coding", ": "], ["# -*- coding: ", "utf-8"], ["# -*- coding: utf-8", " -"], ["# -*- coding: utf-8 -", "*"], ["# -*- coding: utf-8 -*", "-"], ["base", "_"], [": ", "str"], ["k", "e"], ["s", "("], ["bes", "t_"], ["s", "\": "], ["n", "ew"], ["性", "。"], ["扎", "实"], ["、", "网络"], ["好", "的"], ["，", "具备"], ["(", "1"], ["，", "包括"], ["直", "接"], ["D", "M"], ["7", "."], ["机", "制"], ["、", "M"], ["需", "要"], ["o", "f"], ["前", "端"], ["ri", "p"], [" ", "I"], [" ", "3"], ["主", "场"], ["i", "c"], ["0", "0 "], ["M", "1"], [".", "json"], ["antnest_", "harnes"], ["fini", "sh"], ["w", "ar"], ["动", "作"], ["o", "ut"], ["__", "ini"], ["__ini", "t_"], ["__init_", "_"], ["t", "(\""], ["\"", "}"], ["\": ", "\""], ["ch", "ar"], ["[", ":"], ["=", "T"], ["=T", "r"], ["=Tr", "ue"], ["se", "r"], ["log", "i"], ["/workspace", "/"], ["cf", "g"], ["扩", "展"], ["语", "言"], ["预训练", "数据"], ["清", "洗"], ["反", "馈"], ["覆", "盖"], ["统", "计"], ["方", "式"], ["ad", "c"], ["adc", "ase"], ["清", "晰"], ["管", "线"], ["Agent ", "Harness "], ["上", "下"], ["科", "学"], ["进", "行"], ["n", "g"], ["办", "公"], ["D", "S"], ["可", "能"], ["配", "置"], ["交", "互"], [" ", "J"], ["目", "标"], ["算", "力"], ["o", "ck"], ["A", "N"], ["修", "复"], ["数据", "产品经理"], ["维", "度"], ["文", "本"], ["情", "感"], ["）", "研究员"], ["）", "："], ["（Agent ", "1"], ["T", "in"], ["Tin", "y"], ["Tiny", "GP"], ["（Agent ", "2"], ["字", "符"], ["--", "--"], [" ", "|"], ["g", "ist"], ["di", "r"], ["artifacts", "/"], ["\"\"\"", "Agent "], ["cl", "as"], ["t", "("], ["a", "i"], ["ap", "pen"], ["appen", "d("], ["par", "ts"], ["max_", "new"], ["ART", " / "], ["mes", "sa"], ["c", "lient"], ["，", "让"], ["。", "我们"], ["创", "新"], ["观", "测"], ["效", "率"], ["支", "持"], ["实", "验"], ["系统", "的"], ["可", "靠"], ["设计", "、"], ["及", "以上"], ["深度", "学习"], ["【岗位类别】：", "全职"], ["y", "thon"], ["R", "L"], ["参", "数"], ["回", "归"], ["优秀", "的"], ["工作", "。"], ["系统", "性"], ["em", "ory"], [" ", "S"], ["人", "才"], ["故", "障"], ["产", "出"], ["he", "ll"], ["蚁", "巢"], ["2", "8"], [" ", "号"], ["To", "k"], ["Tok", "enizer"], ["lo", "ad"], ["────────", "────────"], ["(", "p"], ["[", "0]"], ["st", "at"], ["str", ":"], ["json", "."], ["=", "1"], ["as", "k"], ["ma", "in"], ["ART / ", "f\"{"], ["深度", "参与"], ["招聘", "方向"], ["【岗位", "职责】"], ["快", "速"], ["应", "用"], ["链", "路"], ["全", "栈"], ["采", "集"], ["d", "u"], ["1.", "负责"], ["针", "对"], ["以", "及"], ["愿", "意"], ["操", "作"], ["问题", "。"], ["、", "S"], ["DM", "A "], ["合", "作"], ["自己", "的"], ["R", "e"], ["E", "ng"], ["ine", "er"], ["ineer", "ing"], ["公", "司"], ["e", "c"], ["一", "致"], ["对", "话"], ["编", "译"], ["D", " "], ["本", "地"], ["基", "线"], ["输", "出"], ["资", "产"], ["Nest", "Agent"], ["  ", "  "], ["re", "ad_"], ["fi", "le"], ["c", "on"], ["en", "code"], ["i", " in "], [".", "ge"], ["[", "i"], [")", ","], ["load_", "corpus"], [", ", "default"], ["print", "(f\""], ["h", "ist"], ["hist", "ory"], ["招聘方向", "【"], ["可", "观测"], ["，能", "够"], ["的", "技术"], ["搭", "建"], ["至", "少"], ["发", "现"], ["瓶", "颈"], ["良", "好的"], ["研发", "工程师"], ["关", "键"], ["生", "产"], ["行", "为"], ["可", "用"], ["调", "优"], ["经", "历"], ["训练", "与"], [" AGI", " "], ["成", "本"], ["2.", "熟悉"], ["转", "化"], ["上下", "文"], ["ub", "agent"], ["To", "ol"], ["k", "i"], ["Eng", "ineering"], ["运", "营"], ["O", "S"], ["时", "代"], ["协", "议"], ["t", "es"], ["E", "P"], ["，", "而"], ["真", "正"], ["P", "E"], ["i", "te"], ["antNest ", "LLM "], [" ", "<"], ["antnest_llm", "/"], ["s", "hell"], ["M1", " "], ["O", "N"], ["from ", "path"], ["from path", "li"], ["from pathli", "b"], ["from pathlib", " import "], ["from pathlib import ", "Path"], ["clas", "s "], ["mer", "ges"], ["e", "_"], [") -> ", "str:"], [" == ", "\""], ["st", "o"], ["sto", "i"], ["co", "nt"], [")", ", "], ["{\"", "action"], ["arg", "s"], ["cfg", "[\""], [": ", "{"], [", ", "tools"], ["t", "ask"], ["开发", "工程师"], ["协", "同"], ["、", "数据"], ["紧", "密"], ["能力", "，"], ["掌", "握"], ["优化", "。"], ["大", "型"], ["，", "或"], ["下", "一"], ["，", "用"], ["监", "控"], ["品", "味"], ["2.", " "], ["优先", "。"], ["数据", "处理"], ["指", "标"], ["组", "织"], ["（", "如"], ["C", "P"], ["下", "的"], ["b", "adcase"], ["，", "在"], [" R", "DMA "], ["ul", "ti"], ["ulti", "-"], ["共同", "进化"], ["方", "法"], ["基", "本"], ["相关", "的"], ["路", "线"], ["背", "景"], ["a", " "], ["设", "备"], ["A", "S"], ["相", "信"], ["4", " "], ["变", "更"]]}