{"type": "bpe", "base": [" ", "!", "\"", "#", "%", "&", "'", "(", ")", "*", "+", ",", "-", ".", "/", "0", "1", "2", "3", "4", "5", "6", "7", "8", "9", ":", ";", "<", "=", ">", "?", "@", "A", "B", "C", "D", "E", "F", "G", "H", "I", "J", "K", "L", "M", "N", "O", "P", "Q", "R", "S", "T", "U", "V", "W", "X", "Y", "[", "\\", "]", "_", "`", "a", "b", "c", "d", "e", "f", "g", "h", "i", "j", "k", "l", "m", "n", "o", "p", "q", "r", "s", "t", "u", "v", "w", "x", "y", "z", "{", "|", "}", "~", "±", "·", "×", "÷", "α", "β", "ε", "λ", "π", "–", "—", "‖", "“", "”", "…", "→", "↔", "∈", "−", "≈", "≠", "≤", "≥", "①", "②", "③", "④", "⑤", "⑥", "⑦", "─", "│", "└", "├", "►", "▼", "✅", "✓", "✔", "✗", "、", "。", "《", "》", "「", "」", "『", "』", "【", "】", "一", "七", "万", "三", "上", "下", "不", "与", "专", "且", "世", "业", "丛", "丝", "丢", "两", "严", "个", "中", "丰", "串", "临", "为", "主", "举", "久", "么", "义", "之", "乌", "乎", "乐", "九", "也", "习", "书", "乱", "了", "予", "争", "事", "二", "于", "云", "互", "五", "些", "亡", "交", "亦", "产", "享", "京", "亲", "人", "亿", "什", "仅", "今", "仍", "从", "仓", "他", "付", "代", "令", "以", "们", "仰", "件", "价", "任", "份", "仿", "企", "众", "优", "伙", "会", "传", "估", "伴", "伸", "似", "但", "位", "低", "住", "体", "何", "余", "作", "你", "佳", "使", "例", "供", "依", "侧", "促", "保", "信", "修", "倍", "候", "借", "值", "倾", "假", "偏", "做", "停", "健", "储", "像", "允", "元", "充", "兆", "先", "光", "克", "免", "兜", "入", "全", "八", "公", "六", "共", "关", "兴", "兵", "其", "具", "典", "养", "兼", "内", "册", "再", "冒", "冗", "写", "冲", "决", "况", "冷", "净", "准", "减", "几", "凭", "出", "击", "函", "刀", "分", "切", "刊", "划", "列", "则", "创", "初", "删", "判", "利", "别", "到", "制", "刷", "刺", "刻", "前", "剔", "剪", "副", "力", "办", "功", "加", "务", "劣", "动", "助", "励", "劳", "势", "勤", "包", "化", "北", "匹", "区", "医", "十", "千", "升", "半", "协", "卓", "单", "博", "占", "卡", "印", "危", "即", "却", "卷", "厂", "历", "压", "厚", "原", "去", "参", "又", "叉", "及", "友", "双", "反", "发", "取", "受", "变", "叠", "口", "句", "另", "只", "召", "可", "台", "史", "号", "司", "各", "合", "同", "名", "后", "吐", "向", "君", "吞", "否", "吧", "含", "听", "启", "吸", "吾", "呈", "告", "员", "周", "味", "命", "和", "品", "哈", "响", "哪", "唯", "商", "善", "喧", "喻", "嗅", "器", "噪", "嚣", "四", "回", "因", "团", "园", "围", "固", "国", "图", "土", "在", "地", "场", "址", "均", "坍", "坏", "坑", "块", "坚", "垂", "型", "垒", "域", "培", "基", "堆", "塌", "塑", "塞", "填", "境", "墙", "增", "墨", "壁", "壤", "士", "壮", "声", "壳", "处", "备", "复", "外", "多", "够", "大", "天", "太", "央", "失", "头", "夹", "奇", "奏", "契", "奖", "套", "好", "如", "妙", "妥", "始", "姿", "威", "子", "孕", "字", "存", "孙", "季", "学", "孵", "它", "守", "安", "完", "宏", "官", "定", "实", "审", "客", "室", "家", "容", "宽", "宿", "密", "富", "察", "寸", "对", "寻", "导", "射", "将", "尊", "小", "少", "尖", "尚", "尝", "尤", "就", "尺", "尽", "尾", "局", "层", "展", "属", "岗", "岸", "崩", "嵌", "巢", "工", "巨", "差", "己", "已", "市", "布", "师", "希", "带", "帧", "帮", "常", "幅", "幕", "干", "平", "年", "并", "广", "序", "库", "应", "底", "度", "座", "康", "延", "建", "开", "异", "弃", "式", "引", "张", "弦", "弱", "弹", "强", "归", "当", "录", "形", "影", "彻", "彼", "往", "征", "径", "待", "很", "律", "得", "循", "微", "德", "徼", "心", "必", "忆", "忍", "志", "忘", "忠", "快", "念", "态", "怎", "怕", "思", "急", "性", "总", "恒", "恢", "息", "恰", "恶", "悉", "情", "惯", "惰", "想", "愈", "意", "感", "愠", "愿", "慢", "慧", "懂", "戏", "成", "我", "或", "战", "截", "户", "房", "所", "手", "才", "扎", "扑", "打", "托", "执", "扩", "扫", "扮", "批", "找", "承", "技", "把", "抓", "投", "抖", "折", "抢", "护", "报", "披", "抱", "抵", "抽", "担", "拆", "拉", "拒", "拓", "拔", "招", "拟", "拥", "拦", "择", "括", "拷", "拼", "拿", "持", "指", "按", "挑", "挖", "挥", "损", "换", "据", "捷", "掉", "掌", "排", "掘", "探", "接", "控", "推", "掩", "措", "描", "提", "插", "握", "揭", "搀", "搜", "搭", "摘", "摩", "撑", "撬", "播", "撰", "擅", "操", "擎", "擦", "攀", "支", "收", "改", "攻", "放", "政", "故", "效", "敏", "教", "敛", "敢", "散", "敬", "数", "整", "文", "斗", "料", "斥", "断", "新", "方", "施", "旅", "旋", "无", "既", "日", "旧", "早", "时", "明", "易", "星", "映", "是", "显", "晋", "景", "晰", "智", "暂", "暖", "暴", "曰", "曲", "更", "曾", "替", "最", "月", "有", "朋", "服", "望", "期", "木", "未", "末", "本", "术", "机", "杂", "权", "材", "束", "条", "来", "松", "板", "极", "构", "析", "果", "架", "某", "染", "柜", "查", "栅", "标", "栈", "栏", "校", "样", "核", "根", "格", "框", "案", "桌", "档", "桥", "桶", "梁", "梦", "梯", "械", "检", "棒", "棘", "椀", "楚", "概", "榜", "榨", "槛", "模", "横", "欠", "次", "欢", "欲", "款", "歌", "止", "正", "此", "步", "死", "殆", "残", "段", "母", "每", "比", "毫", "气", "氛", "水", "永", "求", "汇", "池", "污", "沉", "沙", "沟", "没", "治", "沿", "法", "泛", "波", "注", "洀", "洁", "洗", "洞", "洪", "活", "派", "流", "浇", "测", "浓", "海", "浸", "消", "涉", "涌", "涨", "液", "涵", "淀", "淆", "深", "混", "清", "渗", "温", "渲", "渴", "游", "湃", "湖", "湿", "溃", "源", "溢", "溯", "滑", "滚", "满", "漂", "漏", "演", "潜", "澎", "灌", "火", "灯", "灰", "灵", "灾", "炸", "点", "炼", "烈", "烟", "热", "焉", "焦", "然", "照", "熟", "燃", "爀", "爆", "爬", "爱", "片", "版", "牌", "牢", "物", "牵", "特", "犯", "状", "独", "献", "玄", "率", "玩", "环", "现", "班", "球", "理", "琐", "琢", "瓦", "瓶", "生", "用", "由", "申", "电", "画", "畅", "界", "畏", "留", "略", "疆", "疏", "症", "痕", "痛", "登", "白", "百", "的", "益", "监", "盒", "盖", "盘", "目", "盯", "盲", "直", "相", "盾", "省", "看", "真", "眼", "着", "督", "瞄", "瞻", "矣", "知", "矩", "短", "石", "矿", "码", "研", "破", "础", "硕", "硬", "确", "碎", "碑", "磁", "磨", "示", "礼", "社", "祉", "神", "票", "禁", "福", "离", "秀", "种", "科", "秒", "秦", "秩", "积", "称", "移", "稀", "程", "税", "稠", "稳", "究", "空", "穿", "突", "窗", "立", "站", "竞", "章", "端", "笔", "符", "第", "笼", "等", "筑", "答", "策", "筛", "筹", "签", "简", "算", "管", "箱", "籍", "类", "粘", "粹", "精", "糊", "系", "素", "索", "紧", "累", "繁", "纠", "红", "约", "级", "纪", "纯", "纳", "纵", "纸", "纹", "纽", "线", "练", "组", "细", "织", "终", "经", "结", "绕", "给", "络", "绝", "统", "继", "绩", "绪", "续", "维", "综", "绿", "缀", "缓", "编", "缝", "缩", "缺", "网", "罔", "罕", "置", "署", "美", "群", "老", "考", "者", "而", "耕", "耗", "耦", "聊", "职", "联", "聘", "聚", "肯", "育", "背", "胜", "能", "脆", "脑", "脚", "脱", "腻", "自", "至", "致", "舍", "航", "般", "良", "色", "艺", "节", "芒", "芯", "花", "若", "英", "范", "荆", "荐", "荣", "获", "营", "落", "著", "蒸", "蓝", "薪", "虚", "虫", "蚁", "蚂", "融", "血", "行", "衡", "补", "表", "衰", "衷", "被", "裁", "裂", "装", "裕", "裹", "要", "覆", "见", "观", "规", "视", "览", "觉", "角", "解", "触", "言", "计", "订", "认", "让", "训", "议", "记", "讲", "许", "论", "设", "访", "证", "评", "识", "诉", "诊", "词", "译", "试", "诗", "诚", "话", "诡", "询", "该", "详", "语", "误", "说", "诵", "请", "诺", "读", "课", "调", "谈", "谋", "谓", "谢", "谨", "象", "貌", "贝", "负", "贡", "财", "责", "败", "账", "货", "质", "贪", "购", "贯", "贴", "费", "资", "赋", "赖", "赛", "走", "起", "超", "越", "趋", "趟", "趣", "足", "跃", "跌", "跑", "距", "跟", "跨", "路", "跳", "践", "踏", "踩", "踪", "蹊", "身", "轨", "转", "轮", "软", "轻", "载", "较", "辄", "辅", "辑", "输", "辞", "辟", "辨", "边", "达", "迁", "过", "迈", "迎", "运", "近", "返", "还", "这", "进", "远", "连", "迟", "迭", "述", "迹", "追", "退", "送", "适", "逃", "选", "透", "逐", "递", "逗", "通", "速", "造", "逸", "逻", "逼", "遇", "道", "遗", "遵", "避", "邃", "那", "邻", "部", "都", "配", "酬", "醒", "采", "释", "里", "重", "野", "量", "金", "鉴", "针", "钟", "钮", "钳", "钻", "铁", "银", "铸", "铺", "链", "销", "锁", "锋", "锐", "错", "锚", "键", "镜", "长", "门", "闭", "问", "闲", "间", "阈", "阔", "队", "阱", "防", "阵", "阶", "附", "际", "降", "限", "院", "除", "险", "陪", "陷", "随", "隐", "隔", "障", "难", "雅", "集", "雏", "雕", "零", "需", "露", "静", "非", "靠", "面", "革", "音", "页", "顶", "项", "顺", "须", "预", "领", "颈", "频", "题", "额", "颠", "风", "飙", "馈", "馏", "首", "驭", "驱", "驳", "驻", "驾", "验", "骤", "骨", "骼", "高", "魂", "鲁", "鲜", "黑", "默", "鼓", "齐", "！", "（", "）", "，", "：", "；", "＝", "？", "～", "🐜"], "merges": [[":", " "], ["\"", ": "], [",", " "], ["n", "t"], ["s", "t"], ["s", "s"], ["l", "o"], ["o", "r"], ["a", "r"], ["0", "."], ["i", "n"], ["r", "e"], ["lo", "ss"], ["\": ", "0."], ["|", " "], ["t", "e"], ["=", " "], [" ", " "], ["c", "h"], ["n", "e"], ["g", "e"], [" ", "= "], ["s", "e"], [" ", "| "], ["t", "r"], ["o", "n"], ["a", "l"], ["_", "loss"], ["d", "e"], ["\"", ", "], ["0", "0"], ["}", ","], ["m", "e"], ["ge", "nt"], ["e", "n"], ["a", "c"], ["-", "-"], ["t", "o"], ["a", "n"], ["数", "据"], ["t", "i"], ["a", "nt"], ["#", " "], ["─", "─"], ["-", " "], ["1", "."], ["(", "\""], ["A", "gent"], ["*", "*"], ["i", "te"], ["模", "型"], ["\"", "\""], ["v", "al"], ["re", "w"], ["a", "t"], ["r", "o"], ["e", "p"], ["f", " "], ["tr", "a"], ["训", "练"], ["e", "st"], ["\"", ")"], ["+", " "], ["l", "l"], ["Agent", " "], ["2", "."], ["m", "p"], ["t", " "], ["a", "d"], ["o", "l"], ["(", ")"], ["e", "r"], ["_loss", "\": "], ["ite", "r"], ["/", " "], ["ar", "d"], [".", "p"], ["tra", "in"], ["rew", "ard"], ["\": 0.", "0"], [" ", "+ "], ["`", "`"], ["se", "l"], ["\"", "iter"], ["N", "est"], ["sel", "f"], ["\"", "reward"], [" ", "/ "], ["\"iter", "\": "], ["\"", "loss"], ["t", "s"], ["  ", "  "], ["ar", "g"], ["3", "."], ["\", ", "\""], ["工", "具"], ["ar", "ne"], ["arne", "ss"], ["团", "队"], ["l", "e"], ["ant", "ne"], ["antne", "st"], ["\": ", "\""], ["i", "st"], ["c", "k"], ["o", "de"], ["val", "_loss\": "], ["j", "s"], ["0", ","], ["→", " "], ["\"", "train"], ["\"", "val_loss\": "], ["产", "品"], ["能", "力"], ["任", "务"], ["_", "n"], ["i", "f "], ["u", "r"], ["ch", "or"], ["{", "\""], ["\": 0.", "00"], ["工", "程"], ["to", "ol"], ["an", "chor"], ["js", "on"], ["A", "I"], ["H", "arness"], ["L", "L"], ["Nest", " "], ["s", "."], [" ", "|"], ["ur", "n"], ["or", " "], [" ", "→ "], ["self", "."], ["4", "."], ["t", "urn"], ["#", "# "], [".p", "y"], ["in", " "], ["系", "统"], ["n", "_"], ["s", "p"], ["to", "k"], ["LL", "M"], ["_n", "ll"], ["e", "x"], ["\"loss", "\": "], ["anchor", "_nll"], ["\"\"", "\""], ["职", "位"], ["Harness", " "], ["u", "t"], ["re", "turn"], ["评", "测"], ["ep", "o"], ["epo", "ch"], ["──", "──"], ["f", "i"], ["s", " "], ["return", " "], ["\"", "anchor_nll"], ["方", "向"], ["设", "计"], ["ant", "Nest "], ["t", "h"], ["ti", "on"], [" ", "-"], [")", ","], ["c", "o"], ["st", "ep"], ["f", "\""], ["\"reward", "\": 0.0"], ["or", "ch"], ["p", "o"], ["m", " "], ["m", "a"], ["\\", "n"], ["\"", "epoch"], ["\"epoch", "\": "], ["i", "d"], ["a", "me"], ["3", ","], ["u", "l"], ["\"train", "_loss"], ["t", "orch"], ["2", ","], ["2", " "], ["de", "f "], ["w", "or"], ["m", "ode"], ["mode", "l"], ["a", "p"], ["s", "h"], ["f", "or "], ["研", "究"], ["in", "g"], ["i", "nt"], ["i", "z"], ["2", "5"], ["6", ","], ["antnest", "_"], ["i", "mp"], ["imp", "or"], ["impor", "t "], ["1", ","], ["``", "`"], ["wor", "k"], ["ac", "e"], ["d", "i"], ["）", "，"], ["at", "h"], ["开", "发"], ["sp", "ace"], ["c", "or"], [", ", "\""], ["work", "space"], ["AI", " "], ["/", "workspace"], ["经", "验"], [" ", "in "], ["o", "ne"], ["\"", "]"], ["4", ","], ["7", ","], ["p", "e"], ["torch", "."], ["\"", "}"], ["\"anchor_nll", "\": 0."], ["3", " "], ["g", "r"], ["m", "d"], ["[", "\""], ["8", ","], ["我", "们"], ["0", " "], ["l", "i"], ["动", "作"], ["ac", "tion"], ["/workspace", "/"], ["真", "实"], ["p", "ro"], ["9", ","], ["N", "one"], ["工程", "师"], ["技", "术"], ["n", "ame"], [">", " "], ["st", "r"], [")", ")"], ["ar", "ti"], ["a", "ss"], ["文", "件"], ["4", " "], ["arti", "f"], ["artif", "ac"], ["artifac", "ts"], ["l", "en"], ["）", "。"], ["5", "."], ["or", "y"], ["|", "--"], ["e", "nt"], ["工", "作"], ["y", "th"], ["yth", "on"], ["_", "s"], ["c", "tr"], ["f", "in"], ["\"", ","], ["s", "\": "], ["学", "习"], ["S", "F"], ["_", "_"], ["s", " = "], ["\"train_loss", "\": 0.00"], ["负", "责"], ["l", "r"], ["5", ","], [")", ":"], ["x", "t"], ["l", "ist"], ["ad", "_"], ["优", "化"], ["质", "量"], ["a", "se"], ["—", "—"], ["`", " "], ["=", "\""], ["d", "("], ["方", "案"], ["p", "u"], ["ll", "m"], ["f", "t"], ["SF", "T"], ["\"val_loss\": ", "1."], ["a", "s"], [" ", "Agent "], ["交", "付"], ["d", "_"], ["。", "\", "], ["深", "度"], [" ", "A"], ["报", "告"], ["gr", "po"], [" | ", "0."], ["5", " "], ["预", "训练"], ["o", "p"], ["c", "t"], ["u", "me"], ["\"reward", "\": 0."], ["核", "心"], ["算", "法"], ["b", "est"], ["岗", "位"], ["要", "求"], ["d", "ing"], ["（", "Agent "], [".", "json"], ["2", "4"], [")", " "], ["ma", "x"], ["1", " "], ["|--", "-"], [".", "md"], ["len", "("], ["\"", "ctr"], ["使", "用"], ["in", "e"], ["6", "."], ["artifacts", "/"], ["{\"", "p"], ["\"ctr", "_loss"], ["用", "户"], ["语", "料"], ["LLM", " "], ["完", "成"], ["执", "行"], ["    ", "    "], ["性", "能"], ["网", "络"], ["te", "xt"], ["arg", "s."], ["问", "题"], ["架", "构"], ["u", "e"], ["o", "ut"], ["\": \"", "/workspace/"], ["理", "解"], [" ", "C"], ["co", "ding"], ["o", "k"], ["ge", "t"], ["\"loss", "\": 0."], ["智", "能"], ["P", "U"], ["e", "m"], ["沙", "箱"], ["re", "p"], ["【", "岗位"], ["领", "域"], ["tok", "en"], ["**", "："], ["fi", "le"], ["lo", "g"], ["s", "()"], ["f", "ro"], ["fro", "m "], ["n", "o"], ["\"", "step"], ["持", "续"], ["具", "备"], ["lo", "ck"], ["-", "8"], ["1", "5"], ["p", "en"], ["v", "e"], ["P", "O"], ["p", "ython"], ["进", "化"], ["h", "e"], ["1", "9"], ["1", "2"], ["di", "r"], ["antnest", "/"], [" -", "> "], ["通", "过"], ["b", "lock"], ["s", "ft"], ["e", "val"], ["cor", "pu"], ["ut", "f"], ["utf", "-8"], ["测", "试"], ["的", " "], ["l", "a"], ["o", "c"], ["w", "r"], ["wr", "ite"], ["_", "p"], ["────", "────"], ["\"train", "_loss\": "], ["服", "务"], ["与", " "], ["熟", "悉"], ["G", "I"], ["自", "动"], ["ul", "ti"], ["1", "7"], ["轨", "迹"], ["s", ", "], ["{\"p", "\": \"/workspace/"], ["\"ctr_loss", "\": 0.0"], ["\"", "lr"], ["\"lr", "\": 0.00"], ["an", "d"], ["3", "2 "], ["p", "ar"], ["ul", "t"], ["规", "模"], ["ch", "e"], ["ro", "u"], ["1", "8"], ["i", "c"], ["iz", "er"], ["antnest_", "llm"], ["c", "on"], [".", "get"], ["研究", "员"], ["相", "关"], ["pro", "mp"], ["采", "样"], ["A", "R"], ["管", "理"], ["7", "."], ["fin", "i"], ["a", "b"], ["li", "ent"], ["iz", "e"], ["|---", "|---"], ["f", "a"], ["\"step", "\": "], ["基", "础"], [" ", "R"], ["p", "t"], ["1", "6"], ["write", "_"], ["b", "d"], ["b", "ase"], ["a", "gent"], ["r", "a"], ["G", "R"], [" ", "**"], ["SFT", " "], [" ", "0."], ["  ", " "], ["ne", "w"], ["大", "模型"], [" ", "等"], ["corpu", "s"], ["\"iter\": ", "1"], ["迭", "代"], ["职", "责"], ["经验", "。"], ["信", "息"], ["模", "态"], ["硬", "件"], ["v", "oc"], ["voc", "ab"], ["c", "ode"], ["p", "ass"], [" ", "import "], ["\"}", "),"], ["结", "构"], ["多", "模态"], ["一", "个"], ["奖", "励"], ["al", "l"], ["2", "8"], ["## ", "M"], [" ", "antNest "], ["as", "k"], ["]", ", "], ["ume", "nt"], ["l", "ine"], ["t", "y"], ["fini", "sh"], ["-", "1"], ["t", "ask"], [" ", "{"], ["no", "t "], ["(\"", "tool"], ["(", "f\""], ["要求", "】"], ["规", "划"], ["GR", "PO"], ["P", "ath"], ["──", " "], ["s", "u"], ["职责", "】"], ["分", "析"], [" ", "P"], ["参", "数"], ["搜", "索"], ["运", "维"], ["闭", "环"], ["te", "st"], ["交付", "物"], ["mp", "le"], ["i", "l"], ["ty", "pe"], ["\"iter\": ", "2"], ["计", "算"], ["场", "景"], ["D", "M"], ["实", "现"], ["词", "表"], ["antnest/", "artifacts/"], ["(", "self"], ["c", "f"], [".", "ad"], ["\"train_loss\": 0.00", "0"], ["探", "索"], ["类", "型"], [" ", "Harness "], ["ck", "pt"], ["i", "ts"], ["from ", "."], ["de", "fa"], ["h", "ist"], ["建", "设"], ["落", "地"], ["，", "能"], ["大", "规模"], ["，", "对"], [" ", "AI "], ["环", "境"], ["me", "m"], ["）", "："], ["h", "arness"], [" ", "`"], ["l", "p"], ["s", ")"], [")", " -> "], ["s", "("], ["=", "= "], ["re", "s"], ["(", "1"], ["存", "储"], ["s", "c"], ["1", "3"], ["re", "ad_"], [" ", "--"], ["cor", "e"], [": ", "str"], ["\"", ":"], ["AR", "T"], ["(\"tool", "\", \""], ["id", "x"], ["\"loss\": ", "2."], ["\"iter\": ", "3"], ["协", "作"], ["2", "7"], ["体", "系"], ["框", "架"], [" ", "M"], ["结", "果"], ["独", "立"], ["集", "群"], ["对", "话"], ["（", "M"], ["2", "9"], ["ap", "pen"], ["appen", "d("], ["json", "."], ["lo", "ad_"], ["type", "="], [".p", "ar"], ["(", "model"], ["f\"", "{"], ["ap", ".ad"], ["ap.ad", "d_"], ["ap.add_", "arg"], ["ap.add_arg", "ument"], ["ap.add_argument", "(\""], ["ap.add_argument(\"", "--"], ["描", "述"], ["使", "命"], ["深", "入"], ["研", "发"], ["项", "目"], ["推", "理"], ["定", "义"], ["Q", "A"], ["token", "izer"], ["_", "dir"], ["write_", "file"], ["p", "ath"], ["[", ":"], ["max", "_"], ["p", "r"], ["pr", "int"], ["开", "源"], ["代", "码"], ["2", "6"], ["优", "先"], ["策", "略"], ["经", "理"], ["v", "i"], ["中", "心"], ["a", "m"], ["对", "比"], ["e", "v"], ["ol", "ve"], ["sh", "e"], ["she", "ll"], ["co", "nt"], [" ", "for "], ["_s", "ize"], ["text", "("], ["en", "coding"], ["encoding", "=\""], ["encoding=\"", "utf-8"], ["defa", "ult"], ["职位", "描述"], ["构", "建"], ["平", "台"], ["业", "务"], ["名", "称"], ["n", "g"], ["一", "致"], ["T", "r"], ["负责", "人"], ["b", "u"], ["list", "_dir"], ["E", "A"], ["ma", "in"], ["re", "fi"], ["refi", "x"], ["best", "_"], ["encoding=\"utf-8", "\")"], ["cf", "g"], ["\"loss\": ", "1."], ["参", "与"], ["解", "决"], ["L", " "], ["产品", "经理"], ["A", "GI"], ["锚", "定"], ["te", "d"], ["a", "mple"], ["1", "4"], ["(self", ", "], ["id", "s"], ["n_", "em"], ["n_em", "bd"], ["he", "ad"], ["hist", "ory"], ["运", "行"], ["自", "己"], ["ch", "at"], ["i", "t"], ["数据", "中心"], ["1", "0"], ["che", "ck"], ["- ", "负责人"], ["- 负责人", "："], ["3", "00"], ["- ", "**"], [" = ", "torch."], ["加", "分"], ["处", "理"], ["默", "认"], ["统", "计"], ["指", "标"], ["6", " "], ["M", " "], ["蚁", "巢"], ["me", "tr"], ["metr", "ic"], [".py", "` "], ["log", "its"], [".get", "(\""], ["团队", "使命"], ["驱", "动"], ["维", "护"], ["以", "上"], ["专", "业"], ["职位", "名称"], ["段", "落"], ["验", "证"], ["格", "式"], ["e", "c"], ["G", "P"], [" ", "v"], ["e", "l"], ["bu", "il"], ["目", "录"], ["m", "ulti"], ["'", "]"], ["ti", "me"], ["{\"p\": \"/workspace/", "antnest/artifacts/"], ["团队使命", "】"], ["。", "我们"], ["分", "布"], ["职位", "信息"], ["职", "能"], ["职能", "类型"], ["默认", "段落"], ["默认段落", "字"], ["默认段落字", "体"], ["定", "位"], ["L", "o"], ["体", "验"], ["调", "用"], ["路", "径"], ["mem", "ory"], ["check", "po"], ["checkpo", "int"], ["采", "购"], ["对", "齐"], ["字", "符"], ["2", "0"], ["0", ", "], [")", ", "], ["[", "'"], ["ART", " / "], ["【", "团队使命】"], ["边", "界"], ["全", "职"], ["】", "："], ["，", "并"], ["设", "施"], ["调", "度"], ["自动", "化"], ["Lo", "op"], ["ex", "tr"], ["extr", "ac"], ["C", "rew"], ["O", "N"], [" ", "== "], ["block", "_size"], ["promp", "t"], ["cfg", "[\""], ["\"val_loss\": ", "2."], ["提", "升"], ["优", "秀"], ["需", "求"], ["知", "识"], ["，", "不"], ["关", "键"], ["d", "u"], ["每", "一"], ["D", "S"], ["目", "标"], ["i", "p"], ["门", "禁"], ["5", "9"], ["GP", "T"], ["extrac", "ted"], ["n", "n"], ["metric", "s."], ["metrics.", "json"], ["C", "lient"], ["vi", "e"], ["vie", "w"], ["3", "8"], ["r", "an"], ["ch", "ar"], ["v", "er"], ["to", "t"], ["0", "]"], [" = ", "["], ["a", "te"], ["n_", "head"], ["print", "(f\""], ["保", "障"], ["【岗位", "要求】"], ["能力", "。"], ["检", "索"], ["、", "M"], ["A", "S"], ["E", " "], ["ev", "olve"], ["antnest_llm", "/"], ["at", "ch"], ["m", "in"], ["antnest_", "harness"], ["3", "9"], ["l", "y"], ["ct", "x"], ["c", "rew"], ["or", "t"], ["冲", "刺"], ["pass", "@"], ["a", "ge"], ["+", "= "], [")", "."], ["}", "\\n"], ["(model", ", "], ["ART / ", "f\"{"], ["a", "_"], ["稳", "定"], ["、", "可"], ["，", "有"], ["编", "程"], ["c", "e"], ["基础", "设施"], ["覆", "盖"], ["内", "容"], ["过", "程"], ["建", "立"], ["w", "i"], ["G", "PU"], ["本", "地"], ["智能", "体"], ["ac", "t"], ["文", "本"], ["ne", "r"], ["tool", "s"], ["7", "5"], ["回", "流"], ["corpus", "_"], ["python", " -"], ["python -", "m "], ["an", "s"], ["lo", "ad"], [")", "}"], ["if ", "not "], ["el", "se"], ["}", "\")"], ["Tr", "ue"], ["name", "\": \""], ["\"val_loss\": ", "6."], ["共", "同"], ["分布", "式"], ["回", "归"], ["沟", "通"], ["安", "全"], ["【", "工作"], ["评", "估"], ["上", "下"], ["s", "or"], ["算", "力"], ["D", " "], ["T", "in"], ["Tin", "y"], ["Tiny", "GPT"], ["评测", "集"], ["1", "1"], ["g", "ist"], ["```", "action"], ["g", "rep"], ["rou", "n"], ["）", " |"], ["se", "t"], ["di", "ct"], ["c", "l"], ["(", "p"], ["\"]", ", "], ["tok", "."], ["tok", ", "], ["max_", "new"], ["的", "数据"], ["提", "供"], ["清", "洗"], ["包", "括"], ["范", "式"], ["o", "ol"], ["R", "e"], ["产", "出"], ["修", "复"], ["3", "4"], ["2", "00"], ["nn", "."], ["O", "O"], ["）", "→ "], ["_", "ckpt"], ["b", "pe"], ["pro", "b"], ["多", "步"], ["EA", "DM"], ["tra", "j"], ["a", "i"], ["multi", "_"], [".", "append("], ["=", "True"], ["roun", "d("], ["。\", ", "(\"tool\", \""], ["\")", "),"], ["me", "ss"], ["mess", "age"], ["软", "件"], ["高", "效"], ["前", "沿"], ["3", "5"], ["0", "8"], ["复", "杂"], ["流", "程"], ["高", "性能"], ["【工作", "职责】"], [" A", "nt"], ["通", "信"], ["u", "b"], ["u", "n"], ["什", "么"], ["te", "r"], ["b", "atch"], ["B", "P"], ["v", "4"], ["3", "7"], ["al", "se"], ["ro", "le"], ["k", "e"], ["i", "s "], [" ", "or "], ["p", "_"], ["\", ", "type="], [", ", "default"], [", default", "="], ["推", "动"], ["熟", "练"], ["、", "C"], ["ad", "c"], ["adc", "ase"], ["上下", "文"], ["长", "期"], ["记", "忆"], ["ulti", "-"], ["记", "录"], ["一致", "性"], ["可", "能"], ["f", "lo"], [" ", "1"], ["后", "训练"], ["## M", "0 "], ["p", "y"], ["1", "+ "], ["生", "成"], ["0", "7"], ["通过", "率"], ["00", "0"], ["fin", "d"], [" | ", "**"], ["_", "con"], [".py", "`"], ["tra", "js"], ["antnest_llm", "."], ["at", "u"], ["```", "python"], ["me", "r"], ["par", "ts"], ["F", "alse"], ["_", "metrics.json"], [":", "."], ["f", "}"], ["一", "下"], ["├", "── "], ["#", "   "], ["好", "的"], ["P", "I"], ["，", "持续"], ["【", "加分"], ["【加分", "项"], ["【加分项", "】"], ["下", "一"], ["链", "路"], ["资", "源"], ["了", "解"], ["与", "数据"], ["判", "断"], ["经验", "，"], ["T", "ool"], ["路", "由"], ["rou", "p"], ["## M", "1+ "], ["2", "2"], ["2", "3"], ["u", "p"], ["re", "view"], ["f", "or"], ["[", "0]"], ["None", ", "], ["str", ":"], ["=", "False"], [" == ", "\""], ["flo", "at"], ["arg", "s"], ["_s", "core"], ["(", "ART / f\"{"], [": ", "{"], ["c", "lient"], ["\"loss\": ", "3."], ["，", "让"], ["招", "聘"], ["中", "的"], ["计算", "机"], [" ", "的"], ["及", "以上"], ["世", "界"], ["合", "规"], [" A", "GI"], ["，", "而"], ["热", "情"], ["l", "an"], ["O", "pen"], ["配", "置"], ["g", "roup"], ["标", "准"], ["s", "/"], ["de", "r"], ["promp", "t "], ["建", "议"], ["新", "增"], ["en", "code"], ["*", " "], ["ai", "r"], ["M", "5"], ["o", "ver"], ["over", "all"], ["# ", "-"], ["# -", "*"], ["# -*", "- "], ["# -*- ", "coding"], ["# -*- coding", ": "], ["# -*- coding: ", "utf-8"], ["# -*- coding: utf-8", " -"], ["# -*- coding: utf-8 -", "*"], ["# -*- coding: utf-8 -*", "-"], ["self.", "_"], ["────────", "────────"], ["c", "i"], ["fi", "g"], ["se", "con"], ["secon", "d"], ["\"reward\": 0.0", "5"], ["创", "新"], ["产品", "的"], ["不", "同"], ["实", "践"], ["通", "用"], [" ", "LLM "], [" Ant", "Nest "], ["直", "接"], ["机", "制"], ["需", "要"], ["响", "应"], [" ", "J"], ["算", "子"], ["选", "择"], ["空", "间"], [" ", "<"], ["32 ", "个"], [" ", "×"], [".p", "t"], ["antnest_harness", "/"], ["6", "7"], ["扩", "容"], ["rep", "ort"], ["**", "（"], ["LLM", "Client"], ["_", "vocab"], ["chat", "_"], ["）", " | "], ["对齐", "税"], ["轨迹", "回流"], [".json", "l"], ["python -m ", "antnest_llm."], ["。", "\"\"\""], ["\"\"\"", "Agent "], ["\")", "."], ["su", "m"], ["al", "_"], [":", "]"], ["(model, ", "tok, "], ["model", "."], ["y", "er"], ["second", "s\": "], ["tr", "ue"], ["c", "md"], ["arg", "s\": "], ["\"anchor_nll\": 0.", "4"], ["扎", "实"], ["语", "言"], ["本", "科"], ["0", "5"], ["模型", "训练"], ["可", "用"], ["原", "理"], ["，", "从"], ["交", "互"], ["and", " "], ["D", "e"], [" ", "L"], ["输", "出"], ["数据", "产品经理"], ["外", "部"], ["结", "束"], ["4", "0,"], ["GRPO", " "], ["m", "o"], ["report", ".md"], ["3", "3"], ["措", "辞"], ["QA", " "], ["L", "_"], ["al", "p"], ["alp", "h"], ["_p", "refix"], ["s = ", "["], [" ", "is "], ["du", "mp"], ["re", "_"], ["as", "ci"], ["asci", "i"], ["read_", "text("], [".", "st"], [" ", "else"], ["w", "er"], ["\"", "n_"], ["re", "c"], ["c", "\": \""], ["。\", ", "{\"p\": \"/workspace/antnest/artifacts/"], ["ok", "\": "], ["│", "   "], ["支", "持"], ["快", "速"], ["可", "靠"], ["，", "或"], ["发", "现"], ["学", "历"], [" ", "S"], ["数据", "工程师"], ["模型", "的"], ["优秀", "的"], ["角", "色"], ["，", "在"], ["b", "adcase"], ["b", "o"], ["时", "代"], ["前", "端"], ["所", "有"], ["v", "2"], ["协", "议"], ["成", "功"], ["o", "ck"], ["不", "是"], ["主", "场"], ["维", "度"], ["严", "格"], ["（", "含"], ["antNest ", "LLM "], ["命", "令"], ["|--", "--"], ["）", "；"], ["S", "ON"], ["antnest_", "te"], ["out", "pu"], ["outpu", "ts"], ["#", "## "], ["me", "an"], ["grpo", "5"], ["ex", "pe"], ["p", "air"], ["5", "8"], ["\")", ":"], ["0", ")"], [" + ", "1"], ["\"}", ")"], ["read_text(", "encoding=\"utf-8\")"], [" = ", "Path"], [", ", "_"], ["ans", "wer"], [".par", "ent"], ["wi", "th"], ["ate", "_"], ["main", "()"], ["he", "lp"], ["\"", "seconds\": "], ["history", "\": "], [", \"", "ok\": "], ["25", ","], ["开发", "工程师"], ["仓", "库"], ["实", "验"], ["扩", "展"], ["良", "好的"], ["/", "算法"], ["【岗位", "类"], ["【岗位类", "别"], ["【岗位类别", "】："], ["，", "具备"], ["优先", "。"], ["方向", "、"], ["R", "L "], ["模", "式"], ["方", "式"], ["返", "回"], ["管", "线"], ["DM", "A"], ["Agent ", "Harness "], ["A", "nt"], ["背", "景"], ["第", "一"], ["DS", "ec"], ["人", "才"], [" ", "3"], ["情", "感"], [" ", "步"], ["方案", "》"], ["0", "9"], [" ", "号"], ["工具", "调用"], ["read_", "file"], ["ex", "ist"], ["antnest_te", "am"], ["冲刺", "报告"], ["P", "R"], ["工具", "选择"], ["EADM", "E"], ["s", "core"], ["max", "("], ["6", "-"], ["__", "in"], ["__in", "it"], ["__init", "__"], [": str", ", "], [": ", "int"], [".get", "("], [" ", "- "], ["[", "i"], [" ", "+= "], ["None, ", "None"], [") -> ", "str:"], ["json.", "dump"], ["json.dump", "s("], ["en", "su"], ["ensu", "re_"], ["ensure_", "ascii"], ["ensure_ascii", "=False"], [" / ", "\""], [", ", "4"], ["la", "yer"], ["help", "=\""], ["\", type=", "int"], ["\", type=int", ", default="], ["new", "_"], ["{\"", "cmd"], [", ", "args."], [".py", "        "], [", \"ok\": ", "true"], [", \"ok\": true", "}"], ["，", "你"], ["观", "测"], ["性", "。"], ["应", "用"], ["、", "网络"], ["至", "少"], ["贡", "献"], ["个", "人"], ["，", "为"], ["深度", "学习"], ["5", "4"], ["P", "ython"], ["，", "包括"], ["清", "晰"], ["办", "公"], ["I", "n"], ["隔", "离"], ["o", "f"], ["故", "障"], ["C", "L"], ["保", "存"], ["观", "察"], ["I", "T"], ["基", "线"], ["接", "入"], ["e", "d"], ["综", "合"], ["C", "o"], ["产", "物"], ["lo", "ng"], ["财", "务"], ["计", "划"], ["已", "完成"], ["d", "at"], ["1", "00"], ["M", "1 "], ["w", "ar"], ["r", "or"], ["团队", "交付物"], ["str", "ip"], ["ex", "ample"], ["g", "o"], ["buil", "d_"], ["from ", "path"], ["from path", "li"], ["from pathli", "b"], ["from pathlib", " import "], ["from pathlib import ", "Path"], ["cl", "ass"], ["mer", "ge"], ["i", " in "], ["# ", "── "], ["load_", "corpus_"], ["par", "se"], ["te", "mp"], ["temp", "er"], ["temper", "atu"], ["temperatu", "re"], [".", "s"], ["model", "_con"], ["model_con", "fig"], ["se", "r"], ["f", "x"], ["{\"", "action"], ["\"anchor_nll", "\": "], ["\"", "best_"], ["\"", "history\": "], ["│   ", "├── "], ["\"train_loss", "\": 0.0"], ["效", "率"], ["设计", "、"], ["本科", "及以上"], ["研发", "工程师"], ["反", "馈"], ["生", "产"], ["经", "历"], ["引", "擎"], [" AGI", " "], ["真", "正"], ["成", "本"], ["方", "法"], ["进", "行"], ["em", "ory"], ["公", "司"], ["物", "理"], ["相", "信"], ["）", "、"], ["nt", "i"], ["in", "d"], ["）", "研究员"], ["与", "训练"], ["4", "4"], [" ", "2"], ["py", "test"], ["0", "4"], ["C", "U"], ["梯", "度"], [" ", "4"], ["样", "本"], ["启", "动"], ["损", "失"], ["直", "连"], [" ", "SFT "], ["Ant", "Nest"], ["_", "m"], ["pass@", "k"], ["T", "OO"], ["expe", "ct"], ["对比", "学习"], ["6", "4"], ["  ", "# "], ["ite", "m"], ["ke", "y"], ["la", "m"], ["lam", "bd"], ["te", "n"], ["ten", "sor"], ["tensor", "("], ["gr", "ad"], ["1", ")"], ["model_config", ".json"], ["(\"", "finish"], ["(\"finish", "\", "], ["{\"cmd", "\": \""], ["(", "x"], ["]", "),"], ["\":", "\""], ["_metrics.json", "》"], ["\"history\": ", "["], ["基", "座"], ["系统", "的"], ["本科及以上", "学历"], ["【岗位类别】：", "全职"], ["2.", " "], ["采", "集"], ["完", "整"], [" ", "p"], ["信", "号"], ["以", "及"], ["操", "作"], ["badcase", " "], ["工作", "。"], ["系统", "性"], ["、", "S"], ["转", "化"], ["合", "作"], ["科", "学"], ["自己", "的"], ["Agent ", "Loop"], ["ine", "er"], ["ineer", "ing"], ["社", "区"], ["”", "的"], ["思", "考"], ["风", "险"], ["运", "营"], ["DSec", " "], ["O", "S"], ["C", "PU"], ["编", "译"], ["当", "前"], ["c", "le"], ["而", "非"], ["R", "E"], ["升", "级"], ["资", "产"], ["创", "作"], ["解", "析"], ["3", "1"], [" ×", " "], ["32 ", "份"], ["checkpoint", " "], ["val", " "], ["T", "ok"], ["Tok", "en"], ["Token", "izer"], ["2", "1"], ["De", "code"], ["5", "0"], ["|----", "--"], ["BP", "E "], ["结", "论"], ["Nest", "Agent"], ["antnest_team", "/"], ["ran", "k"], ["✅", " | "], [" | 0.", "000"], [" | **", "0."], ["trajs", ".jsonl"], ["自", "我"], ["ac", "k"], [" | ", "Agent "], ["te", "("], ["ran", "ge"], ["s", ":"], ["None", ":"], [": ", "list"], ["json.", "load"], ["json.load", "s("], ["）。", "\"\"\""], ["cont", "in"], ["contin", "ue"], ["d", "type="], ["torch.", "long"], ["res", "ult"], ["step", "s"], ["\"], ", "cfg[\""], ["_ckpt", ".pt"], ["_n", "ame"], ["p", "fx"], ["帮", "我"], ["c", "all"], ["6", "0,"], ["\"train_loss", "\": 0."], ["\"anchor_nll\": ", "1."], ["\"train_loss\": ", "2."], ["\"train_loss\": 0.000", "2,"], ["{\"", "name\": \""], ["\", \"", "args\": "], ["\"}", ", \"ok\": true}"], ["招聘", "方向"], ["、", "数据"], ["【岗位", "职责】"], ["可", "观测"], ["掌", "握"], ["，能", "够"], ["没", "有"], ["下一", "代"], ["品", "味"], ["全", "栈"], ["全", "部"], ["，", "是"], ["底", "层"], ["u", "st"], ["增", "量"], ["1.", "负责"], ["针", "对"], ["R", "L"], ["组", "织"], ["调", "优"], ["愿", "意"], ["（", "如"], ["C", "P"], ["支", "撑"], ["在", "线"], ["每一", "次"], ["下", "的"], ["问题", "。"], ["R", "A"], ["DMA", " "], ["ulti-", "Agent"], ["k", "i"], ["E", "ng"], ["Eng", "ineering"], ["开源", "社区"], ["路", "线"], ["满", "足"], ["a", "v"], [" ", "N"], ["d", "ro"], ["——", " "], ["文", "档"], ["版", "本"], ["看", "看"], ["o", "d"], ["行", "政"], ["C", "h"], ["（", "数据"], ["LLM", "（"], ["质量", "门禁"], ["s", "ample"], ["w", "c"], ["%", " "], ["收", "敛"], ["war", "m"], ["warm", "up"], ["N", "T"], ["E", "S"], ["Tool", "Re"], ["ToolRe", "gist"], ["ToolRegist", "r"], ["ToolRegistr", "y"], ["E", "r"], ["Er", "ror"], ["Crew", " "], ["best", " "], ["6", "8"], [" | ", "`"], ["v", "3"], ["0.", "2"], [")", " + "], ["|---|---", "|---|---"], [" P", "R"], ["16", "7"], ["课", "程"], ["R", "EADME"], ["动作", "空间"], [" ", "("], ["。", "\")"], ["（", "t"], ["| ", "`"], [".py`", " | Agent "], ["p", "refix"], ["sp", "li"], ["spli", "t"], ["s.", "append("], ["g", "lo"], ["glo", "b"], ["\\n", "\\n"], ["t", " = "], ["t", "."], ["id", "s = "], ["dtype=", "torch.long"], ["arg", "parse"], [" ", "a"], ["di", "m"], ["k", "ind"], ["\"]", ","], ["n_", "layer"], ["p_", "len"], ["\"anchor_nll", "\": 0.0"], ["\"val_loss\": ", "7."], ["\"train_loss\": 0.00", "1"], ["\"lr\": 0.00", "0"], ["线", "上"], ["招聘方向", "【"], ["深度", "参与"], ["扎实", "的"], ["搭", "建"], ["，", "用"], ["离", "线"], ["瓶", "颈"], ["性", "、"], ["全", "链路"], ["好", "奇"], ["行", "为"], ["细", "节"], ["常", "见"], ["形", "态"], ["O", "I"], ["极", "致"], ["2.", "熟悉"], ["转化", "为"], ["ub", "agent"], ["共同", "进化"], ["逻", "辑"], ["其", "他"], ["上", "限"], ["表", "达"], ["a", "ti"], [" ", "prompt "], ["问", "答"], ["编", "码"], ["H", "R"], ["K", " "], ["）", "+ "], ["审", "查"], ["9", "5"], ["on", "ly"], ["3", " | "], ["de", "mo"], ["示", "例"], ["AntNest", "LLMClient"], ["_vocab", ".json"], ["8", "7"], ["=", "0."], ["rep", "ly"], ["_", "log"], ["过程", "奖励"], ["L", "5 "], ["_", "ok"], ["_", "B"], ["_", "example"], ["自我", "进化"], ["M5", "-"], ["5", "："], ["ra", "st"], [".", "."], ["def ", "__init__"], ["strip", "()"], ["def ", "_"], ["write_", "text("], ["st", "o"], ["sto", "i"], ["sum", "("], ["c", "ep"], [" = [", "]"], ["dtype=torch.long", ")"], ["}", ")"], ["_", "grad"], [" = torch.", "tensor("], ["dim", "="], ["']", "}"], ["default", "=\""], ["\", \"", "q"], ["{\"p\": \"/workspace/", "extracted"], ["\", \"", "name\": \""], ["re", "gist"], ["regist", "er"], ["q", ", "], ["ame", "ter"], [" = ", "self."], ["。", "\","], ["client", "."], ["\"train_loss\": ", "3."], ["6", "6"], ["\"loss\": ", "4."], ["端", "开发工程师"], ["协", "同"], ["一", "起"], ["紧", "密"], ["能力", "，"], ["成", "果"], ["能力", "和"], ["面", "向"], [" A", "PI"], ["优化", "。"], ["大", "型"], ["协", "助"], ["监", "控"], ["者", "优先。"], ["人", "类"], ["实", "习"], ["数据", "处理"], ["噪", "声"], ["日", "志"], ["好奇", "心"], ["的", "理解"], ["4.", "有"], ["校", "验"], ["一", "定"], ["兴", "趣"], ["K", "V"], ["感", "知"], ["持续", "学习"], ["a", "che"], ["候", "选"], ["生", "活"], ["基", "本"], ["、", "P"], ["行", "业"], ["相关", "的"], ["8", "."], ["作", "为"], ["的", "人"], ["b", "e"], ["C", "ode"], ["设", "备"], ["，", "但"], ["的", "能力"], ["实", "际"], ["超", "算"], ["保", "持"], ["。", "你"], ["指", "令"], ["大模型", "训练"], ["i", "g"], ["I", "D"], ["拒", "绝"], ["每", "次"], ["变", "更"], ["IT", " "], ["历", "史"], ["“", "主场"], ["300", " 步"], ["9", " "], ["3", "3 "], ["antNest ", "Harness "], [".", "t"], ["and", "bo"], ["andbo", "x"], ["dat", "a"], ["动作", "协议"], ["本地", " antNest "], ["p", "lan"], ["_", "report.md"], ["择", "优"], ["加", "载"], ["8", "4"], ["多", "轮"], ["chat_", "crew"], ["(", "r"], ["p", "er"], ["L", "3 "], ["**：", "`"], ["成", "报告"], ["晋", "升"], ["task", "s"], ["# ", "antnest_llm/"], ["def __init__", "(self, "], ["()", ", "], ["base", "_"], [".", "item"], [") ", "- "], ["range", "("], ["]", ")"], ["f", "."], ["_", "id"], [" else", " "], ["f", "un"], ["fun", "c"], [" a", "s "], [".s", "ize"], [":.", "3"], ["M", "6-"], ["查", "看"], ["O", "G"], ["ol", "d_"], ["time", "."], ["{\"", "dir"], ["(\"", "帮我"], ["一下", " "], ["\", \"", "c\": \""], ["wc", " -"], [".par", "ameter"], [".parameter", "s()"], ["op", "}"], ["：", "\", \""], ["(\"finish\", ", "None, None"], ["par", "am"], ["\"val_loss\": 1.", "7"], ["\"}, \"ok\": true}", ", "], ["\"}, \"ok\": true}, ", "{\"name\": \""], ["作", "品"], ["全职", "】："], ["大", "的"], ["责", "任"], ["熟练", "掌握"], ["方案", "。"], ["部", "署"], ["模型", "在"], ["1.", " "], ["预训练", "数据工程师"], ["高", "质量"], ["(", "2"], ["的", "新"], ["识", "别"], [" P", "ython"], ["日", "常"], ["模型", "能力"], [" C", "PU"], ["有", "强"], ["追", "求"], [" 等", "）"], ["内", "存"], ["延", "迟"], ["与 ", "Harness "], ["深度", "使用"], ["人", "的"], ["选", "型"], ["是", "否"], ["提", "取"], ["U", "I"], ["关", "系"], ["写", "入"], ["C", " "], ["r", "i"], ["主", "流"], ["互", "联"], ["C", "E"], ["并", "行"], ["M", "O"], ["编译", "器"], ["GPU", " "], ["i", "le"], ["说", "明"], ["服务", "器"], ["渲", "染"], ["兼", "容"], ["ing", " "], ["F", "ro"], ["Fro", "nti"], ["Fronti", "er"], ["公", "有"], ["1.", " **"], ["3", "0"], ["0", "6"], ["5", "5"], ["白", "名"], ["白名", "单"], ["任务", "："], ["DSec ", "沙箱"], ["6", "9"], ["4", "0 "], [" ", "2 "], ["/", "19"], ["--", "-"], ["放", "大"], [" 0.", "2"], ["TOO", "L_"], ["(1", ", "], ["r", "u"], ["ru", "n_"], ["_", "po"], [" ", "文件"], ["数", "量"], ["multi_", "av"], ["multi_av", "g"], ["[", "1"], ["pass", "k"], ["de", "code"], ["import ", "json"], [") ", "for "], [" = ", "{"], ["ra", "te("], [".", "strip()"], ["list", ":"], [" ", "if "], [" = Path", "(\""], ["if ", "_"], ["g", "re"], ["_", "answer"], ["act", ".get(\""], ["], ", "dtype=torch.long)"], [" = ", "model"], ["[:", ", "], ["_", "model_config.json"], ["\": ", "round("], [", 4", "),"], [":.3", "f}"], ["\", ", "default=\""], ["exist", "s()"], ["ge", "n"], ["=True", ")"], ["\", \"q", "\": \""], ["：", "\\n"], ["mean", "_"], ["self", ".p"], ["<", "|"], ["|", ">"], ["\", ", "(\"tool\", \""], ["\"})", "),"], ["_p", "ath"], ["\"best_", "val_loss\": "], ["\",", "\""], ["T", "H"], [".py        ", "    "], ["\"step", "s\": "], ["2", "0,"], ["3", "6,"], ["2", "9,"], ["12", "0,"], ["3.", "具备"], ["责任", "心"], ["主", "动"], ["至少", "一"], ["加", "入"], ["成", "绩"], ["正", "确"], ["主", "导"], ["本科及以上学历", "，"], ["3.", "有"], ["C", "+"], ["3.", " "], ["规", "范"], ["R", "ust"], ["1.", "对"], ["2.", "对"], ["敏", "锐"], [" ", "token"], ["，", "熟悉"], ["消", "息"], ["深入", "理解"], ["会", "议"], ["AI ", "搜索"], ["，而", "是"], ["任", "何"], ["这", "里"], ["之", "间"], ["y", " "], ["生", "态"], ["模型", "、"], [" R", "DMA "], ["D", "A"], ["加", "速"], ["，", "探索"], ["领域", "的"], ["管理", "、"], ["自", "进化"], ["任", "职"], ["能", "够"], ["有", "极"], ["ulti-", "Agent "], ["t ", "Engineering"], ["失", "败"], ["中", "文"], ["的", "事"], ["脚", "本"], ["虚", "拟"], ["of", "f"], ["不", "会"], ["你", "的"], ["客", "户"], ["演", "进"], ["（", "CPU"], ["读", "取"], ["a", "f"], ["续", "训"], ["继", "续"], ["里", "有"], ["根", "因"], ["员", "工"], ["每", "个"], ["入", "库"], ["A", "PI"], ["AI ", "产品经理"], ["专", "项"], ["强", "化"], ["ar", "ts"], ["均", "可"], ["（", "J"], ["错", "误"], ["评测", "体系"], ["法", "律"], ["审", "美"], ["管", "培"], ["战", "略"], [".py", "）"], ["）", "与"], ["为", " "], ["- ", "训练"], ["清", "单"], ["联", "合"], [".t", "xt"], ["pytest", " "], ["余", "弦"], ["NT", "N"], ["NTN", "ES"], ["NTNES", "T"], ["NTNEST", "_"], ["NTNEST_", "LLM"], ["NTNEST_LLM", "_"], ["笔", "记"], ["review", "er"], ["演", "示"], ["关键", "词"], ["命", "中"], ["re", "ad"], [" C", "rew"], ["BP", "E"], ["v", "1"], ["源", "码"], ["ass", "ist"], ["assist", "ant"], ["_m", "1"], ["）", "**"], ["18", "/19"], ["对话", "模式"], ["4", "9"], ["L", "-"], ["25", "6"], ["| ", "M"], ["|---", "|"], ["eval", "set"], ["4", " | "], ["(", "0."], ["冷", "启动"], ["M", "4 "], ["PR", "M"], ["即", "训练"], ["围", "栏"], ["tot", "al"], ["name", ", "], [" | ", "\""], ["alph", "a"], ["_s", "ft"], ["cont", "rast"], ["v", "5"], ["b", "ack"], ["base", "_prefix"], ["out", "_prefix"], [" + ", "Agent "], ["s", "a"], ["sa", "ve"], ["i", ", "], ["c", " in "], ["read_text(encoding=\"utf-8\")", ")"], ["\"]", ")"], ["tr", "y"], ["try", ":"], ["ex", "cep"], ["excep", "t "], ["re", "."], [" ", "!"], [" !", "= "], ["arg", "s = "], ["ce", "("], ["torch.", "no"], ["torch.no", "_grad"], ["torch.no_grad", "()"], ["tok.", "encode"], ["logits", ", _"], ["-1", "]"], ["at", "("], ["to", "list"], ["tolist", "()"], ["_score", "s)"], ["ate_", "dict"], ["t", "[\""], ["）", "\")"], [".", "A"], ["\", ", "help=\""], ["\").", "write_text("], ["_name", "__"], ["fa", "il"], [" ", "* "], [".", "exists()"], ["{\"action", "\": \""], ["time.", "time"], [".get(", "'"], ["rec", "['"], ["\"", "},"], ["{\"dir", "\": \"/workspace/"], ["\", \"name\": \"", "*"], ["alph", "a_"], ["re", "sp"], ["n", "ume"], ["nume", "l"], ["```action", "\\n"], ["b", "p"], ["\"", "fin"], ["\"fin", "al_"], ["u", "ser"], ["[", "(1"], ["[(1", ", \""], ["(2", ", \""], ["\", ", "(\"finish\", None, None"], ["\", (\"finish\", None, None", "))"], ["\", (\"finish\", None, None))", "]),"], ["v", "l"], ["# ", "antnest_harness/"], ["tools", "="], ["cont", "ent"], ["m", "[\""], ["\"reward", "\": 0.00"], ["\"reward\": 0.0", "3"], ["\"loss\": 0.", "9"], ["\"iter\": ", "5"], ["\"val_loss\": 2.", "9"], ["研究", "中"], ["研究中", "台"], ["，", "构建"], ["与 ", "AI "], ["，你", "将"], ["基", "建"], ["，", "与"], ["稳定", "性"], ["架构", "设计"], ["2.", "具备"], ["千", "万"], ["开发", "经验。"], ["全栈", "开发"], ["全栈开发", "/算法"], ["0.", "0"], ["-", "4"], ["强", "的"], ["多", "样"], ["不", "限"], [" ", "U"], ["数据", "的"], ["a", "sh"], ["人", "工"], ["短", "板"], ["治", "理"], ["，", "设计"], ["的", "性能"], ["经历", "。"], ["任务", "的"], ["水", "平"], ["论", "文"], ["原", "生"], ["只", "是"], ["d", " "], ["量", "的"], ["最", "优"], ["、", "多"], ["出", "发"], ["团队", "》"], ["，", "以"], ["年", "以上"], ["面", "对"], ["as", "on"], ["才", "能"], ["更", "多"], ["可", "以"], ["确", "保"], ["在", " "], ["，", "我们"], ["A", "n"], ["经验，", "熟悉"], ["洞", "察"], ["质量", "保障"], ["每", "一个"], [" ", "G"], ["跨", "界"], ["影", "响"], ["超算", "集群"], ["以", "下"], ["抽", "象"], ["同", "时"], ["en", "d"], [" ", "—— "], ["模型", "结构"], ["i", "t "], [" ", "I"], [" R", "L "], ["本", "身"], ["\"", "。"], ["最", "终"], ["拆", "解"], ["怎", "么"], ["必", "须"], ["认", "知"], ["专业", "领域"], ["强化", "学习"], ["项", "："], ["崩", "溃"], ["依", "赖"], ["构", "造"], ["形", "成"], ["写", "作"], ["（数据", "/算法"], ["（数据/算法", "）研究员"], ["多模态", "理解"], ["动", "态"], ["核心", "业务"], ["法", "务"], ["预", "算"], ["分", "离"], ["loss", " "], ["2.", " **"], ["里", "程"], ["里程", "碑"], ["：", "以"], ["nn.", "L"], ["L", "U"], ["3", "/"], ["解", "码"], ["12", "8"], ["5 ", "号"], ["i", "s"], ["min", "i"], ["语", "义"], ["ctx", " "], ["memory", ".md"], ["退", "火"], ["ant", "Nest"], ["Open", "AI"], ["OpenAI", "Co"], ["OpenAICo", "mp"], ["OpenAIComp", "at"], ["OpenAICompat", "Client"], ["A", "NTNEST_LLM_"], ["最", "近"], ["buil", "der"], [" J", "SON"], ["M", "ock"], ["|------", "|------"], ["sh", "ap"], ["s", "andbox"], ["对", "应"], ["agent", "s"], ["antnest_team/", "outputs"], [" ", "artifacts/"], ["harness", "_m1"], ["harness_m1", "_report.md"], ["d", "oc"], ["归", "一"], ["外部", "合规"], ["外部合规", "语料"], ["3", "6"], ["模型", "放大"], ["evalset", ".json"], ["v", "4 "], ["3", ")"], ["T", "AS"], ["TAS", "K"], ["TASK", "_"], ["使用", "即训练"], ["自", "一致性"], ["五", "级"], ["奖励", "课程"], ["24", "7"], ["参数", "键"], [", ", "tool"], ["攻", "坚"], ["or", "e"], ["se", " "], ["动作", "示例"], ["链", "式"], ["在线", "自我进化"], ["回", "填"], ["ev", "o"], ["工具", "名"], ["m", "arg"], ["8", "8"], ["for", "ce"], ["ti", "t"], ["tit", "le"], [" ", "# "], ["| `", "antnest_llm/"], ["class", " "], ["m ", "in "], ["p", " in "], ["me", "th"], ["meth", "od"], [": ", "dict"], [".", "split"], ["_", " in "], ["_ in ", "range("], [" = ", "("], [" is ", "None:"], ["s ", "+= "], [", ", "ensure_ascii=False"], [" = ", "json.loads("], ["load_", "tokenizer"], ["W", "S"], [" = ", "0."], ["(\"", "*"], ["README", ".md"], ["lambd", "a"], [", ", "block_size"], ["(", "len("], ["_id", "s, "], ["torch.", "nn."], ["res", "olve"], ["resolve", "()"], ["J", "SON"], ["str", "("], ["\", ", "\"\""], ["o", "ft"], ["(", "-1"], ["idx", ", "], [".", "tolist()"], ["with", "(\""], ["cfg[\"", "vocab"], ["\", ", "["], ["def ", "main()"], ["def main()", ":"], ["if _", "_name__"], ["if __name__", " == \""], ["if __name__ == \"", "__"], ["if __name__ == \"__", "main"], ["if __name__ == \"__main", "__"], ["if __name__ == \"__main__", "\":"], ["L", "OG"], ["K", "E"], ["KE", "Y"], ["c", "and"], ["pfx", "}"], ["'", ")}"], [" = ", "\""], ["D", "E"], ["wc -", "l"], ["action", ".get(\""], ["o", "b"], [".", "numel"], ["return ", "None"], ["q, ", "a"], ["_po", "ol"], ["tot", "_"], ["n_embd", ", "], ["。\", ", "{\"p\": \"/workspace/"], ["。\", ", "{\"cmd\": \""], ["/workspace/", "antnest/artifacts/"], ["结束", "。"], ["驱动", " Harness "], ["\"reward\": 0.0", "4"], ["\"reward\": 0.0", "6"], ["\"iter\": ", "4"], ["\"loss\": ", "5."], ["8", "0,"], ["100", ","], ["200", ","], ["\"train_loss\": 0.000", "4,"], ["\"val_loss\": ", "4."], ["list_dir", "\", \"args\": "], ["list_dir\", \"args\": ", "{\"p\": \"/workspace/extracted"], ["致", "力"], ["致力", "于"], ["招聘方向【", "全职】："], ["，", "保障"], ["的", "技术"], ["1.", "有"], ["、", "数"], ["需求", "，"], ["实", "时"], ["底", "座"], ["相关", "专业"], ["S", " "], ["4.", " "], ["知", "名"], ["优", "异"], ["的", "核心"], ["数据", "采集"], ["多模态", "数据"], ["保", "证"], ["设计", "与"], ["控", "制"], ["熟练", "使用"], ["团队", "协作"], ["善", "于"], ["能力", "，能"], ["产品", "、"], ["结", "合"], ["等", "）"], ["周", "期"], ["阶", "段"], ["适", "配"], ["体系", "，"], ["工具", "，"], ["、", "存储"], ["4.", "对"], ["清", "楚"], ["训练", "与"], ["/", "I"], ["操作", "系统"], ["准", "确"], ["成", "为"], ["在", "这里"], ["，", "更"], ["意", "识"], ["模", "块"], ["新", "范式"], ["科", "研"], ["团队", "的"], ["基", "于"], ["M", "ulti-Agent"], ["场景", "下的"], ["【", "任职"], ["【任职", "要求】"], ["候选", "人"], ["转化为", "可"], ["融", "入"], ["收", "集"], ["跟", "踪"], ["an", "u"], ["状", "态"], ["的事", "情"], ["In", "f"], ["Inf", "ra"], ["推", "进"], ["负", "载"], ["开", "始"], ["多", "个"], ["S", "C"], ["极", "限"], ["决", "定"], ["ri", "pt"], ["3.", "对"], ["电", "力"], ["万", "卡"], ["精", "通"], ["P", "A"], ["。我们", "不"], ["高性能", "算子"], ["推理", "框架"], ["接", "口"], ["an", "g"], ["关", "注"], ["AS", "S"], ["a", "tion"], ["希", "望"], ["成", "长"], ["，", "\""], ["足", "够"], [" ", "\""], ["决", "策"], ["W", "e"], ["We", "b"], ["机", "房"], ["里", "的"], ["加分", "。"], [" C", "h"], ["精", "准"], ["更", "新"], ["L", "S"], ["端", "到"], ["端到", "端"], ["：", "Agent "], ["sc", "al"], ["ar", "ch"], ["管培", "生"], ["起", "步"], ["同", "一"], ["真实", " LLM "], ["团队", "（Agent "], [" ", "0"], ["权", "重"], ["前", "缀"], ["# ", "1"], ["E", "_"], ["职位", "文件"], ["finish", " "], ["M", "emory"], ["Decode", "r"], ["Decoder", "-"], ["Decoder-", "only"], ["tokenizer", " "], ["线", "性"], ["Nest", "Crew"], [".py", " "], ["co", "mple"], ["3", "2"], ["模", "板"], ["3.", " **"], ["## ", "一"], ["## 一", "、"], ["## ", "二"], ["## ", "三"], ["## ", "四"], [" ", "3 "], ["antNest ", "M1 "], [" v", "2"], ["区", "间"], ["`", "（"], [" <", " "], ["贪", "心"], ["归一", "化"], [" ", "checkpoint"], ["） | ", "✅ | "], ["7.", "7"], ["ex", "tra"], ["_", "co"], ["独立", "评测集"], ["遗", "忘"], ["公有", "领域"], ["并", "写"], ["独立", "评测"], [" PR", "M"], ["选", "对"], ["动作", "分"], ["28", "7"], ["arg", "s, "], ["PR", "M "], ["alpha", "_sft"], ["误", "工具"], ["观察", "回填"], ["i", "ve"], ["列", "出"], ["_p", "ass"], ["python -m antnest_llm.", "evolve"], ["[1", "]"], ["s = ", "{"], ["团队", " | "], ["ar", "Tokenizer"], ["s", "="], ["t", "up"], ["tup", "le"], ["(", "self."], ["en", "ume"], ["enume", "rate("], ["(\"", "\\n"], ["sor", "te"], ["sorte", "d("], ["for ", "_ in range("], [": str", ") -> "], ["]", " for "], ["s = [", "]"], [".", "j"], [".j", "o"], [".jo", "in"], ["tok", " = "], ["f ", "in "], ["glob", "(\"*"], ["dro", "p"], [" / ", "len("], ["char", "s\": "], [".append(", "("], ["n", " = "], [", ", "y"], ["func", "tion"], ["gre", "ed"], ["greed", "y"], ["greedy", "_answer"], ["\\", "s"], ["\\s", "*"], ["q", "a"], ["max_new", "="], ["to", "p_"], ["top_", "k"], ["logits, _", " = model"], ["(", "idx"], ["dim=", "-1"], ["min", "("], ["))", ")"], ["tok.", "decode"], ["_", "tool"], ["s ", "import "], ["eval", "()"], ["h", "its"], ["r", "g"], ["se", "_"], ["        ", "        "], ["T", "RA"], ["TRA", "J"], ["_", "KEY"], [")}", " "], ["查", "找"], ["antnest", " "], ["统计", "团队交付物"], ["统计团队交付物", "数量"], [" R", "EADM"], [" READM", "E "], ["(\"", "把"], ["l", "s "], ["ls ", "/workspace/"], ["s ", "- "], ["s - ", "1"], [" = ", "F"], ["loss", "e"], ["T", ", "], ["(ART / f\"{", "bp"], ["(ART / f\"{bp", "}"], [".", "m"], ["(ART / f\"{", "op}"], ["\": ", "args."], ["te", "(self, "], ["\"", "c\": \""], ["val", "_loss"], ["train", "\": "], ["val", "\": "], ["res", "ume"], ["de", "sc"], ["tool", "s."], ["ki", "ck"], ["kick", "off"], ["_", "ter"], ["驱动 Harness ", "完成"], ["3", "0,"], ["\"reward\": 0.05", "75"], ["9", "8,"], ["6", "5"], ["6", "7,"], ["\"ctr_loss", "\": 0."], ["4", "7"], ["\"reward\": 0.", "4"], ["14", "0,"], ["300", ","], ["list_dir\", \"args\": {\"p\": \"/workspace/extracted", "\"}, \"ok\": true}, {\"name\": \""], ["服务", "端开发工程师"], ["线上", "核心"], ["线上核心", "服务"], ["数据", "仓库"], ["的", "工程"], ["、", "高效"], ["重", "要"], ["效率", "。"], ["、", "高"], ["落地", "。"], ["精", "神"], ["各", "类"], ["千万", "日"], ["千万日", "活"], ["，", "也"], ["个人", "开源"], ["3.", "在"], ["竞", "赛"], ["取", "得"], ["价", "值"], ["任务", "。"], ["1.", "本科及以上学历，"], ["风", "格"], ["d", "-"], ["\"", "的"], ["最", "大"], ["C+", "+"], ["预训练", "数据"], ["、", "多模态"], ["(1", ")"], ["链", "接"], ["优先", "级"], ["知识", "。"], ["挖", "掘"], ["但", "不限"], ["但不限", "于"], ["等", "核心"], ["，", "提升"], ["语料", "清洗"], ["、", "质量"], ["、", "测试"], ["工具", "。"], ["任", "意"], ["ar", "k"], ["，", "善于"], ["标", "注"], ["视", "频"], ["生", "命"], ["生命", "周期"], ["结构", "化"], ["SFT", "/"], ["效", "果"], ["y", "T"], ["yT", "orch"], ["性能", "优化"], ["异", "步"], ["N", "OI"], ["对", "象"], ["、", "内存"], ["AI 搜索", "算法"], ["打", "造"], ["承", "载"], ["q", "u"], [" ", "badcase "], ["1.", "熟悉"], [" AntNest ", "Harness "], ["、", "工程"], ["主", "要"], ["模型", "与 Harness "], ["数据", "与"], ["在", " AI "], [" Agent ", "产品的"], ["深度使用", "过"], [" ", "LLM"], ["ro", "mp"], ["、C", "o"], ["社", "群"], ["O", "P"], ["、", "用户"], ["9", "."], ["迭代", "。"], ["、", "A"], ["），", "并"], ["异", "常"], ["的", "经验。"], [" ", "4 "], ["、", "有"], ["挑", "战"], ["任", "一"], ["应", "急"], ["落", "盘"], ["压", "测"], ["这", "些"], ["顶", "尖"], ["f", "t "], ["这", "个"], ["限", "制"], ["动", "手"], ["证", "明"], ["《", "1"], ["智能", "的"], ["来", "自"], ["进", "程"], ["充", "满"], ["有", "多"], ["sc", "end"], ["C", "CL"], ["【", "核心"], ["【核心", "要求】"], ["S", "A"], ["复", "现"], ["分布式", "存储"], ["平台", "运维"], ["未", "来"], ["如", "果"], ["如果", "你"], ["（", "\""], ["一个", "你"], ["投", "递"], ["对", "接"], ["工", "单"], ["一", "线"], ["I", " "], ["，", "确保"], ["规划", "、"], ["ID", "C"], ["制", "冷"], ["都", "有"], ["，", "按"], ["部", "门"], ["你", "“主场"], ["技术", "域"], ["层", "（"], ["数据", "策略"], ["回", "答"], ["《", "2"], ["起", "点"], ["情感", "智能"], ["温", "度"], ["scal", "ing "], ["se", "arch"], ["意", "图"], [" ", "QA"], ["逐", "步"], ["银", "行"], ["全", "量"], ["）", "**："], ["外", "壳"], ["Open", "AI "], ["OpenAI ", "兼容"], ["，", "无"], ["版", "权"], ["，", "任务"], ["（", "P"], ["采", "用"], ["参数", "化"], ["越", "界"], [" ", "3."], ["词表", " "], ["任务", "（"], ["mini", " "], [" antNest ", "LLM "], ["4", "2,"], ["3", "，"], ["# ", "2"], ["（", "1"], ["6", "0"], ["    ", "  "], ["上下文", "管理"], [" ", "```action"], ["工具", "："], ["test", "s/"], ["w", "ard"], [" J", "D "], ["# ", "3"], ["\"", "蚁巢"], ["铸", "造"], ["## 二", "、"], ["## 三", "、"], ["3", "-"], ["/", "1"], ["7", "9,"], ["监", "督"], [" Agent ", "Loop"], ["脚", "手"], ["脚手", "架"], ["断", "言"], ["en", "c"], ["cle", "a"], ["clea", "ner"], ["：", "**"], ["chat_", "log"], [" ", "sft"], ["什么", "？"], ["**", " |"], ["|---|---", "|---|"], ["（", "0."], [" ", "step"], ["（", "`"], ["尺", "子"], ["| ", "sft"], [" | 0.000", " | 0."], ["| ", "grpo"], ["26", "00"], ["_log", "prob"], ["2", " | "], ["pass@k", " "], ["真实", "执行"], ["**", " "], ["--", "traj"], ["用", "法"], ["选对", "工具"], ["L", "4 "], ["_", "CU"], ["_CU", "R"], ["_CUR", "R"], ["_CURR", "I"], ["_CURRI", "CU"], ["_CURRICU", "LU"], [".py", " --"], ["成功", "轨迹"], ["score", "_"], ["r", "un"], ["al", "go"], ["n", "ore"], ["保", "留"], ["工具选择", "攻坚"], ["动作空间", "对比学习"], ["期", "望"], ["负", "例"], ["新", "轨迹"], ["进化", "史"], ["st", "atu"], ["go", "al"], ["back", "st"], ["backst", "ory"], ["-", "t"], ["Tr", "ans"], ["Trans", "for"], ["Transfor", "mer"], ["ic", "en"], ["line", ")"], ["b", "re"], ["bre", "a"], ["brea", "k"], [" ", "and "], ["1", ":"], ["return ", "["], ["(", "path"], ["cle", "an"], ["()", " -> "], ["WS", " / \""], [" ", "not "], [" not ", "in "], ["\"", " + "], ["bpe", "_vocab"], ["lambda", " p"], ["import ", "torch"], ["ids", "["], ["import ", "argparse"], ["(", "__"], ["(__", "file"], ["(__file", "__"], ["(__file__", ")."], ["(__file__).", "resolve()"], ["(__file__).resolve()", ".parent"], ["(__file__).resolve().parent", ".parent"], ["L", "E"], [" = ", "{\""], ["except ", "json."], ["except json.", "JSON"], ["except json.JSON", "Decode"], ["except json.JSONDecode", "Error"], ["except json.JSONDecodeError", ":"], ["return ", "s"], ["action", "\")"], ["s", ": list"], [") ", "if "], ["@", "torch.no_grad()"], ["ids = ", "tok.encode"], [" = torch.tensor(", "["], ["oft", "max("], [">", "= "], ["[", "-1]"], ["t ", "in "], ["(model, tok, ", "prompt"], ["eval", "u"], ["ass", "er"], ["asser", "t "], ["len(", "tok"], ["block_size", "\"])"], ["(", "torch."], ["model.", "eval()"], ["s", "[\""], ["res", "['"], ["']", ":.3f}"], ["ap", " = "], ["ap = ", "argparse"], ["ap = argparse", ".A"], ["ap = argparse.A", "rg"], ["ap = argparse.Arg", "ument"], ["ap = argparse.Argument", "P"], ["ap = argparse.ArgumentP", "ar"], ["ap = argparse.ArgumentPar", "ser"], ["args = ", "ap"], ["args = ap", ".par"], ["args = ap.par", "se_"], ["args = ap.parse_", "arg"], ["args = ap.parse_arg", "s()"], ["artifacts/", "{"], ["old_", "r"], ["new_", "r"], [": ", "float"], ["0", ":"], ["la", "st"], ["last", "_"], ["last_", "se"], ["last_se", "en"], ["arts", "with(\""], ["sft", "_"], ["time.time", "()"], ["g", "ate_"], ["t", "0, "], ["：", "{"], ["h", ".get('"], ["\"]", " == \""], ["系", "数"], ["grpo5", "_ckpt.pt"], [" ", "目录"], ["哪", "些"], ["(\"", "看看"], ["找", "出"], [" | ", "wc -l"], ["se", "("], [".numel", "()"], [" = F", "."], ["re", "f"], ["c", "li"], ["mean", "()"], [": str", ") -> str:"], ["ic", "e"], ["\", type=", "float"], ["\", type=float", ", default="], ["lambd", "a_"], ["lambda_", "ctr"], ["se", "e"], ["op", "t"], [".item", "()"], ["loss", "_"], ["n_embd", ")"], ["self.", "n_head"], ["self.", "register"], [".", "view"], ["l", "n"], ["。\", ", "{\"dir\": \"/workspace/"], ["en", "ce("], ["k", "dir"], ["max_", "iter"], ["sh", "ort"], ["short", "_ter"], ["turn", "['"], ["ANTNEST_LLM_", "API"], ["_B", "AS"], ["PO", "R"], ["POR", "T"], ["{\"p\": \"/workspace/antnest/artifacts/", "harness_m1_report.md"], ["# ", "antNest M1 "], ["# antNest M1 ", "报告"], ["# antNest M1 报告", "\\n\\n"], ["# antNest M1 报告\\n\\n", "本地 antNest "], ["# antNest M1 报告\\n\\n本地 antNest ", "LLM（"], ["驱动 Harness 完成", "任务："], ["_s", "af"], ["_saf", "e"], ["_safe", "_path"], ["\"n_", "train\": "], ["7", "2,"], ["\"n_", "val\": "], ["\"epoch\": ", "1,"], ["\"epoch\": ", "1"], ["\"epoch\": 1", "0,"], ["\"epoch\": ", "20,"], ["9", "9"], ["\"epoch\": ", "30,"], ["\"epoch\": ", "40,"], ["\"epoch\": ", "5"], ["\"epoch\": 5", "0,"], ["\"epoch\": ", "60,"], ["2", "1,"], ["\"reward\": 0.0", "2"], ["\"reward\": 0.05", "5"], ["3", "3,"], ["\"anchor_nll\": 0.", "9"], ["13", "3,"], ["\"reward\": 0.0", "1"], ["15", "8,"], ["9", "6,"], ["1", "2,"], ["2", "7,"], ["\"train_loss\": 0.000", "5,"], ["\"val_loss\": 1.", "29"], ["\"train_loss\": ", "4."], ["\"lr\": 0.000", "3"], ["大模型", "研究中台"], ["紧密", "协作"], ["视", "化"], ["后", "端"], ["并", "发"], ["积", "极"], ["用户", "的"], ["内", "部"], ["各", "种"], ["新", "技术"], ["可靠", "性"], ["同", "学"], ["深度", "贡献"], ["多", "种"], ["大规模", "数据"], ["开发", "和"], ["数据", "分析"], ["架构", "与"], ["精", "度"], ["平", "衡"], ["边界", "。"], ["line", " "], ["方向", "。"], ["多样", "性"], ["有", "效"], ["容", "错"], ["重", "复"], ["系统", "研发"], ["海", "量"], ["恢", "复"], ["去", "重"], ["，", "支持"], ["，对", "模型"], ["、", "自动化"], ["筛", "选"], ["与", "模型训练"], ["帮", "助"], ["，", "定位"], ["有强", "烈"], ["，", "愿意"], ["利", "用"], ["工程", "能力"], ["深", "刻"], ["发", "表"], ["世界", "的"], ["寻", "找"], ["依", "据"], ["跟", "进"], ["5.", "有"], ["经验", "者优先。"], ["深度参与", "过"], ["【", "主要"], ["【主要", "职责】"], [" Harness ", "的"], ["，", "实现"], ["基", "准"], ["领域", "具"], ["到", " "], ["在 AI ", "辅"], ["在 AI 辅", "助"], ["在 AI 辅助", "下"], ["判断", "力"], ["自己的", "工作"], ["KV", " C"], ["KV C", "ache"], ["、", "Tool"], ["、Tool", " U"], ["、Tool U", "se"], ["ki", "ll"], ["、", "Harness "], ["1.", "AI"], ["其", "它"], ["超", "乎"], ["超乎", "常"], ["超乎常", "人的"], ["研究员", "深度"], [" Harness ", "产品"], ["高", "校"], ["能", "用"], ["逻辑", "清晰"], [" C", "ode"], ["、", "G"], ["it", "H"], ["itH", "ub"], ["la", "w"], ["严", "谨"], ["等", "。"], ["整", "理"], ["协", "调"], ["的", "基本"], ["Agent ", "Infra"], ["容", "器"], ["超", "大规模"], ["满足", "下"], ["满足下", "列"], ["、", "N"], ["，", "将"], ["，", "建立"], [" AGI ", "时代"], ["测试", "开发工程师"], ["重", "新"], ["新", "的"], ["创", "造"], ["AGI", "的"], ["万卡", "集群"], ["拓", "扑"], ["o", "CE"], ["In", "fini"], ["Infini", "B"], ["动", "、"], ["问题", "，"], ["网", "卡"], ["编", "排"], [" / ", "I"], ["满足", "于"], ["/", "通信"], ["/通信", "/"], ["T", "ile"], ["Tile", "L"], ["TileL", "ang"], ["E", "P"], ["L", "I"], ["秒", "级"], ["体验", "。"], ["D", "B"], ["我们", "不"], ["希望", "你"], ["，而", "不是"], ["两", "个"], ["问题", "的"], ["你", "在"], ["直", "觉"], ["讲", "清楚"], ["参", "考"], ["顺", "畅"], ["匹", "配"], ["第", "三"], ["第三", "方"], ["打", "通"], ["L", "A"], ["，", "覆盖"], ["上", "线"], ["全", "流程"], ["发", "展"], ["输出", "。"], ["液", "冷"], ["有", "真正"], ["容", "量"], ["机", "柜"], ["关键", "指标"], ["思", "维"], ["力", "的"], ["驱", "力"], ["Code", " Agent "], ["RL ", "环境"], ["之", "为"], ["深度", "的"], ["O", "R"], ["G", "S"], ["压", "缩"], ["数据产品经理", "（"], ["与", "优化"], ["Frontier", " "], ["释", "放"], ["视", "觉"], ["D", "）"], ["核心业务", "管培生"], ["商", "务"], ["商务", "谈"], ["商务谈", "判"], ["替", "代"], [" M", "0 "], ["59", "5"], ["K ", "参数"], ["TinyGPT", " "], ["antNest ", "Harness"], ["多", "智能体"], ["9", "/"], ["最", "小"], ["2", "："], ["h", "t"], ["ht", "t"], ["htt", "p"], ["http", "x"], ["份", "交付物"], ["a", "m "], ["引", "入"], ["：", "训练"], ["nn.L", "ine"], ["nn.Line", "ar"], ["注", "意"], ["SA", "F"], ["SAF", "E_"], ["SAFE_", "R"], ["SAFE_R", "OO"], ["SAFE_ROO", "T"], ["e", " "], ["shell", " "], ["at", "/"], ["超", "时"], ["3", "）"], ["评测", "与数据"], ["## M1+ ", "方案"], ["Decoder-only", " "], ["1", " | "], ["（Agent ", "25"], ["为", "奖励"], [" ", "SFT"], ["3 ", "号"], ["余弦", "退火"], [" JSON", " "], ["LLM ", "驱动"], ["shap", "e"], ["一", "一"], ["编", "号"], ["用", "自己"], ["用自己", "铸造"], ["**", "，"], ["## 四", "、"], ["验证", "集"], ["择优", "保存"], ["best ", "val "], ["3.", "8"], ["4 ", "动作"], ["| ", "#"], ["| #", " | "], ["模型", " "], ["长", "度"], ["s", "ist"], ["乱", "码"], [" ", "."], ["2", "6,"], ["微", "调"], ["chat_log", ".md"], ["_p", "i"], ["## ", "五"], ["评测", "与训练"], [" M", "ulti-Agent"], ["通过率", " 0."], ["eval", "s/"], ["evals/", "evalset.json"], ["6.", "07"], ["corpus_", "extra"], ["corpus_extra", ".md"], ["Ch", "at"], [" | ", "✅ | "], ["组", "内"], ["动作", "类型"], ["c", "ro"], ["cro", "ss"], ["cross", "_"], ["cross_", "ent"], ["cross_ent", "ro"], ["cross_entro", "py"], ["任务", "池"], ["TASK_", "PO"], ["TASK_PO", "O"], ["严格", "尺子"], ["P", "SF"], ["入", "口"], [") ", "> "], ["真实", "工具调用"], ["语料", " v"], ["锚定", "批"], [" ", "QA "], ["使用即训练", "\""], ["38", "4"], ["评测", "扩容"], ["至", " "], ["多步", "任务"], [" PR", "M "], ["L", "1 "], ["L1 ", "格式"], ["L5 ", "沙箱"], ["+", "1"], ["L", "2 "], [" 0.", "3"], [" 0.", "15"], ["L3 ", "工具选择"], ["_CURRICULU", "M"], ["）", " | 0."], ["3", " | 0."], ["（M", "4 "], ["grpo", "5 "], ["ASS", "_B"], ["ASS_B", "AR"], ["1", "/"], ["encode", "_example"], ["ad", "v"], ["0.", "5"], ["run_", "multi_"], ["run_multi_", "step"], ["3.", "4"], ["marg", "in "], ["ne", "g"], ["**", " | 0."], ["下一", "步"], ["多轮", "上下文"], ["v", "5 "], [")", " → "], ["evolve", "_log"], ["evolve_log", ".jsonl"], ["(", "任务"], ["(任务", ", "], ["α", " "], ["find", " "], ["def ", "build_"], [" ", "32 个"], ["，", "返回"], ["..", "."], [" Crew", "AI "], ["3", "（"], ["PRM", "+"], ["test", "s"], ["python -m antnest_llm.evolve", " --"], ["Ch", "arTokenizer"], ["model", " import "], ["model import ", "TinyGPT"], ["BPE", "Tokenizer"], ["s)", "}"], ["_", "of"], ["len(", "self."], ["s()", "}"], ["(self", "):"], ["for ", "line"], ["for line", " in "], ["line", ".strip()"], ["wor", "d"], ["(", "f"], ["c", " for "], ["@", "st"], ["@st", "ati"], ["@stati", "c"], ["@static", "method"], [" = [", "], "], [" is ", "not "], ["best_", "i"], ["i", "to"], ["CL", "EA"], ["CLEA", "N"], ["for ", "f in "], ["tot", "al_"], ["\"", "\\n"], [" / \"", "artifacts"], [" / \"artifacts", "\""], [".", "name"], ["ids", "[:"], ["s ", "if "], ["] for ", "i in "], [" = Path", "(__file__).resolve().parent.parent"], ["S", ")"], ["m", ":"], ["k", " in "], ["(f\"", "{"], ["q", "}\\n"], ["temperature", ", "], ["dim=-1", ")"], ["(", "prob"], ["idx", " = torch."], ["[0]", ".tolist()"], ["\")", ")"], [" = ", "TinyGPT"], ["load_", "st"], ["load_st", "ate_dict"], ["w", "e"], ["action", "_"], ["\": round(", "sum("], [" {", "res['"], ["in", "de"], ["), ", "encoding=\"utf-8\")"], ["print", "(\""], ["pro", "mo"], ["# ", "M6-"], ["I", "ON"], ["g", "ate"], ["[", ": "], ["ex", "ec"], ["be", "t"], ["{", "h.get('"], ["=", "args."], ["]", " {"], [" ", "extracted"], ["有多", "少"], ["antnest_harness", "."], ["return ", "score"], ["(x", ")"], ["logits", "["], ["ma", "s"], ["(", "tok, "], ["(", "prompt"], ["_p", "er"], ["_per", "_"], ["_per_", "iter"], ["(model", ".parameters()"], ["(model.parameters()", ", "], ["r", "ng"], ["ner", "at"], ["nerat", "or"], ["op", "t."], ["or", "m"], ["algo", "\": \""], ["algo\": \"", "GRPO"], ["\"iter", "s\": "], ["\"", "group"], ["\"final_", "reward"], ["em", "b"], ["(", "n_embd, "], ["B", ", "], [", ", "v"], ["tr", "an"], ["4", "0"], ["user", "|>"], ["<|", "assistant"], ["ex", ".append(("], ["\": ", "[\""], ["：\", \"", "调用"], ["工具：", "\"],"], ["le", "ad"], ["antnest/", "artifacts"], ["。\", {\"p\": \"/workspace/antnest/artifacts/", "v4"], ["ch", "o"], ["st", "ar"], [":.", "4"], [":.4", "f}"], [".m", "kdir"], [".mkdir", "("], ["exist", "_ok"], ["{", "args."], ["param", "s\": "], ["vocab", "\": "], ["Mock", "LLM"], ["\"\"\"Agent ", "5："], ["role", ", "], ["'", "```action\\n"], ["'```action\\n", "{\"action"], ["'```action\\n{\"action", "\":\""], [", ", "tools="], ["']", "[:"], ["P", "Y"], ["PY", "TH"], ["PYTH", "ON"], [" = Path(\"", "/workspace/antnest/artifacts/"], ["llm", "="], [".", "kickoff"], ["buil", "t"], ["统计团队交付物数量", "并写"], ["统计团队交付物数量并写", "成报告"], [" = ", "NestAgent"], ["任务", "「"], ["ANTNEST_LLM_API", "_BAS"], ["ANTNEST_LLM_API_BAS", "E"], ["RE", "PORT"], ["sc", "ript"], ["ra", "i"], ["base_", "ur"], ["base_ur", "l"], ["m[\"", "role"], ["_safe_path", "(p"], ["self.register", "(\""], ["子", "曰"], ["子曰", "："], ["乎", "？"], ["而", "不"], [" ", "#   "], ["val_loss", "\": 0."], ["2", "4,"], ["5", "2,"], ["\": ", "6,"], ["1", "3,"], ["6", "3,"], ["\"anchor_nll\": 0.", "5"], ["0", "3,"], ["1", "6,"], ["\"reward\": 0.", "7"], ["《", "sft"], ["\"val_loss\": 2.", "6"], ["\"train_loss\": ", "1."], ["16", "0,"], ["18", "0,"], ["\"val_loss\": 1.", "5"], ["24", "0,"], ["\"val_loss\": ", "5."], ["list_dir\", \"args\": {\"p\": \"/workspace/extracted\"}, \"ok\": true}, {\"name\": \"", "write_file"], ["list_dir\", \"args\": {\"p\": \"/workspace/extracted\"}, \"ok\": true}, {\"name\": \"write_file", "\", \"args\": "], ["list_dir\", \"args\": {\"p\": \"/workspace/extracted\"}, \"ok\": true}, {\"name\": \"write_file\", \"args\": ", "{\"p\": \"/workspace/antnest/artifacts/harness_m1_report.md"], ["list_dir\", \"args\": {\"p\": \"/workspace/extracted\"}, \"ok\": true}, {\"name\": \"write_file\", \"args\": {\"p\": \"/workspace/antnest/artifacts/harness_m1_report.md", "\", \"c\": \""], ["list_dir\", \"args\": {\"p\": \"/workspace/extracted\"}, \"ok\": true}, {\"name\": \"write_file\", \"args\": {\"p\": \"/workspace/antnest/artifacts/harness_m1_report.md\", \"c\": \"", "# antNest M1 报告\\n\\n本地 antNest LLM（"], ["list_dir\", \"args\": {\"p\": \"/workspace/extracted\"}, \"ok\": true}, {\"name\": \"write_file\", \"args\": {\"p\": \"/workspace/antnest/artifacts/harness_m1_report.md\", \"c\": \"# antNest M1 报告\\n\\n本地 antNest LLM（", "grpo5_ckpt.pt"], ["list_dir\", \"args\": {\"p\": \"/workspace/extracted\"}, \"ok\": true}, {\"name\": \"write_file\", \"args\": {\"p\": \"/workspace/antnest/artifacts/harness_m1_report.md\", \"c\": \"# antNest M1 报告\\n\\n本地 antNest LLM（grpo5_ckpt.pt", "）"], ["list_dir\", \"args\": {\"p\": \"/workspace/extracted\"}, \"ok\": true}, {\"name\": \"write_file\", \"args\": {\"p\": \"/workspace/antnest/artifacts/harness_m1_report.md\", \"c\": \"# antNest M1 报告\\n\\n本地 antNest LLM（grpo5_ckpt.pt）", "驱动 Harness 完成任务："], ["1.", "具备"], ["3.具备", "良好的"], ["工作", "，"], ["数", "千万日活"], [" API", " "], ["编程", "语言"], ["欢", "迎"], ["2.", "在"], ["大型", "开源"], ["大型开源", "软件"], ["，或", "有"], ["项目", "。"], ["中", "取得"], ["成绩", "。"], ["你", "将"], ["，", "使用"], ["技术", "栈"], ["架构", "的"], ["i", "pe"], ["相关专业", "，"], ["，", "熟练掌握"], ["深度学习", "研发工程师"], ["00", "2"], ["编程", "能力"], ["围", "绕"], ["全", "网"], ["聚", "合"], ["场景", "，"], ["，包括", "但不限于"], ["组", "件"], ["吞", "吐"], ["1.", "计算机"], ["/", "C++"], ["2.", "有"], ["或", "数据"], ["策略", "。"], ["流", "水"], ["，对模型", "行为"], ["，对模型行为", "有"], ["图", "文"], ["训练", "数据"], ["表", "现"], ["表现", "。"], ["3.", "熟悉"], ["CP", "C"], ["文件", "系统"], ["B", " "], ["与", "资源"], [" API", "、"], ["运", "用"], ["架构", "工程师"], ["及", "时"], ["都", "能"], ["轻", "量"], ["理解", "、"], ["等", "方向"], ["高效", "的"], ["工程", "落地"], ["t ", "等"], ["架构", "、"], ["+", "+ "], ["稀", "疏"], ["U", "DA"], ["技术", "，"], ["Agent Harness ", "团队"], ["加入", " AntNest Harness "], ["加入 AntNest Harness ", "团队"], [" Agent ", "Harness "], ["未", "知"], ["、", "产品"], ["产品", "方向"], ["紧密", "合作"]]}